loose
slick
neville
##com
dad
morphology
condemned
townships
₍
##onzo
[unused276]
##uma
programs
assyrian
nathan
sinatra
##bei
vocals
shipping
zhang
↑
hiding
toy
websites
hosts
exits
locke
reviewer
##え
benfica
haifa
salazar
estranged
jet
##genic
##stone
ɔ
reds
narcotics
##lka
massimo
##ware
mlb
[unused279]
racial
fore
abolitionist
##ave
remainder
station
label
sphere
cylinder
albany
soviet
kenji
wurttemberg
mollusk
clearly
harrow
around
[unused225]
centennial
##qi
confiscated
curb
captain
##rigues
donaldson
##dson
##tley
teaches
1783
##皇
##ʁ
mob
presidency
transverse
packs
rookie
quartz
java
341
##ལ
##pm
fearless
##島
[unused673]
some
accredited
motorsport
##puri
porto
half
mcguire
cells
leto
[unused390]
manufacture
vehicle
mirrors
accuse
bismarck
kyrgyzstan
##√
城
[unused587]
cai
milne
ito
[unused693]
palo
burials
privileges
pasha
local
slug
##禾
unopposed
joy
no
##hampton
[unused942]
##stems
resin
believing
campground
daisy
dies
christians
exposure
1660
##res
creations
bearings
documentaries
philippe
健
[unused749]
##crow
entries
projects
dalton
nighttime
1994
##ae
thrown
twisting
##room
##ʐ
##ক
den
վ
ւ
staging
##ense
##公
starts
##missive
derrick
executive
giggle
construction
fearful
web
##श
##et
##tered
helsinki
winston
safeguard
danes
gestapo
floors
##urs
scholars
publishes
ru
##uity
evolutionary
finances
lace
litres
sired
distributing
amounted
lecturer
photography
lyric
bounced
brittany
sixteen
##of
##sque
reputation
horst
shall
##au
##era
predicting
##shida
monde
thinkers
outsiders
107
350
##द
collaborated
proves
pastoral
##―
##led
##rries
##aton
surplus
##ant
##mberg
benton
##tose
lisbon
eh
kim
##raf
[unused781]
ি
manchester
##quin
##ald
[unused364]
##nk
constraint
[unused713]
thompson
contributed
amherst
imported
segment
ballots
escapes
hallways
man
法
mindanao
deter
amplifier
principles
mustered
simply
sindh
dunbar
starbucks
goa
malley
condemnation
virgil
##dar
flights
intern
southeast
canadians
##ан
how
##ition
confronted
johnson
[unused340]
spawn
##ul
simpson
ari
city
boomed
equator
##gau
70th
bets
casino
fellows
hearts
##egan
sperm
##lub
##ा
hugged
excursion
kiev
informally
bandages
ua
imagined
implying
##mun
##grave
trace
apology
courtyard
celaena
1970
##gel
basins
cheering
petrol
stamp
tucking
##56
kung
coptic
earle
reasonably
馬
oakley
invaded
joe
tumors
rohan
##dies
##reen
covert
introductory
jong
incarcerated
rob
##very
electron
billy
artery
limestone
##nik
confines
##isen
harassed
monarchy
##nes
pierced
##ostal
aside
discusses
residential
##erland
montgomery
organizations
[unused541]
jace
bey
futsal
aware
wrestlemania
##nets
looks
solitude
##gt
aft
limits
##cera
425
eagles
amino
##block
mahogany
##tri
##ij
saetan
siblings
##oa
appeal
romney
wa
1939
仮
##ᴬ
240
##linson
aromatic
gleaming
bathing
gut
memorial
soundtrack
canoe
rejecting
j
##sw
gig
montane
arc
so
##ncia
##ac
learners
conrad
axis
##ants
1924
postage
harmed
val
##eland
proficiency
backyard
leaped
580
##nagar
registrar
rotating
##36
##partisan
contact
##uda
##hopper
##sley
grape
##chi
##ock
##rong
lankan
ease
tick
view
##ड
assurance
ヒ
rational
fairs
macon
pencil
convinces
chrome
hallmark
275
##ण
orton
aka
velocity
া
reiterated
decreasing
misleading
diana
##kic
braking
ernst
launcher
ribs
vc
sharp
##m
み
paired
byron
bandits
park
##ont
alyssa
##《
dick
aquatic
inspect
##wad
poisoned
integer
goethe
angie
emphasizes
clearer
current
[unused779]
apologies
colonies
caliber
##ivo
smiling
##neil
pathetic
227
vista
infirmary
conversions
preach
46th
##gie
engraving
penis
hygiene
sunken
pottery
white
penthouse
attach
stuart
##lbert
collingwood
insulation
83
##roved
claims
cane
1864
##）
[unused762]
corrected
##tling
氏
##idon
vendors
##cting
1753
osaka
##€
refer
diagnosis
barrister
eugene
posters
hindus
inclusion
conjecture
point
messy
tripped
surfaced
##ɛ
patch
amidst
vittorio
carver
##xin
healthy
emerald
##dation
winnipeg
marianne
aimee
resurrected
colourful
knows
[unused872]
existing
resurrection
albuquerque
appeals
holding
tr
worker
crafted
##hian
##к
horses
betrayed
##ergy
dominance
sulfate
##lic
[unused820]
##pp
##lain
##sari
404
##tower
predominantly
consortium
revive
##break
##poo
influx
computation
##gf
fluorescent
tangle
toulouse
<
interlude
carleton
superstar
pauses
cougars
##rity
alexia
poked
currie
##roller
##dt
percussion
##神
neglect
notably
even
##sville
lovers
##rwood
musician
bromwich
solo
清
ur
burst
scientific
1766
poultry
##bird
returning
resemblance
armada
electrified
ventilation
pairs
kissing
urbana
dependency
##ced
##食
see
via
##iza
told
##mbre
##朝
mortals
##ʉ
sectors
##rona
yun
appreciated
donald
spurred
resembles
gaming
anthologies
yemen
hilt
1801
percent
highs
##baldi
roy
1872
flock
##vius
phenomenon
twenties
gazing
waited
##flow
balfour
huddled
##街
mast
fifteen
backpack
223
##tones
debuted
maddy
##logram
exceeds
[unused805]
tingling
[unused102]
layered
longitude
##gn
burundi
shape
alive
##rika
[unused418]
pieces
floods
wrote
[unused899]
repression
steamboat
##tion
##iu
conscience
technicians
##iz
conglomerate
##issa
restrict
symmetric
##cratic
61
ali
campaigns
ctv
hosting
‖
##ogan
modelled
purported
suite
##治
##國
madison
[unused339]
3a
cues
dahl
caress
joyah
ச
bros
guards
chestnut
[unused145]
excellence
war
mbe
witnesses
carrot
aviv
mohamed
wry
ᄏ
ruben
crowd
[unused934]
bodies
framing
bolted
dispersal
##nu
constitutes
patients
ᵤ
optimization
projections
wii
competitors
ripple
dismissing
##aea
##wk
boats
freshwater
generating
possibility
1843
presiding
ava
gracefully
alloys
deeds
eruption
owls
preferred
diagnostic
operative
polgara
wrocław
limerick
##pods
[unused127]
consistently
te
hoffmann
ashe
subject
saddam
gloucester
356
registers
##oric
laws
overgrown
complications
##kyu
[unused846]
advocates
banned
superfamily
distracting
nods
ashley
ス
ciudad
kahn
darted
luca
hinduism
nikolay
disagree
peppers
attending
leigh
pathways
##quay
##now
381
asiatic
concluded
শ
##dorff
elusive
condemn
pending
goddard
##章
sophia
[unused653]
##uded
melanie
##quitable
used
##へ
reintroduced
99
smug
分
reported
1933
fine
##plane
emory
1778
hooves
monuments
##folding
namesake
##bb
bored
relaxation
##chaft
[unused326]
##cey
##mounted
helps
indicative
##illa
chorale
wheelchair
dominant
1754
coordinator
##pie
brittle
patti
6000
kilometres
slit
ং
clerk
hectares
テ
lighter
such
外
cromwell
norwood
hacked
mozambique
ruined
interests
licked
stench
anna
ignorant
altered
zhou
florida
rats
immediate
somalia
hopes
##bner
valentin
nostalgia
##u
19th
ʋ
##dant
##pine
##uts
virtual
backstage
fresno
furnace
mist
bryson
##osity
carry
##sil
##主
##人
fey
preserves
licenses
thieves
charting
##life
1663
hesitantly
knit
rom
smack
enough
##metry
lenny
[unused930]
owl
saxophone
sovereign
attended
##ك
controls
slater
scarred
[unused471]
1930
collaborations
[unused583]
##≈
parallel
##erty
##ibe
outraged
##石
##ifier
##bala
[unused463]
chord
lanterns
44
##ulously
believes
precinct
allies
innsbruck
lay
[unused78]
liege
atkins
mona
santana
snapping
boer
rhythms
laughter
1889
tissue
retirement
і
abbreviated
1966
appreciate
discussing
experiment
saturdays
this
miguel
bodied
marry
##wes
cale
n
regular
ga
sigma
##rber
1836
battered
rose
receipt
##լ
##dle
slope
gripped
minas
raise
splashed
shrugged
gave
pharmaceuticals
take
academics
##strel
[unused178]
august
##or
emery
elaborated
smoke
vietnamese
##icient
achieving
guise
territory
seldom
grenada
motorcycle
bertha
electoral
saved
stay
mace
katherine
lizzie
##cd
##nos
accordance
demanded
inactive
numbering
waived
patsy
apparent
halt
minions
conform
##地
convict
curly
employ
329
postponed
sanctions
convention
believer
yellowstone
##elling
##ira
##і
becca
economic
##ven
fingerprints
planes
##jhl
issue
simulator
choosing
independent
breakaway
hairy
pamela
unexpectedly
grid
265
##cchi
##კ
##kki
1871
dharma
adaptive
fumbled
jets
outcome
higgins
swift
baird
dod
owners
##iser
workings
values
##dda
goin
[unused148]
sector
sava
##wall
##ossa
another
##balance
amazing
inspiring
advise
tourism
thorpe
donor
##郡
descriptions
wight
##ister
natal
shu
helpful
creepy
epithet
550
influential
linnaeus
unveiled
vigorously
household
ß
hope
unemployed
affairs
kabul
montrose
muse
townland
islamic
class
##nsed
##⊗
audible
securities
acknowledge
pledge
successful
asha
##200
concludes
missing
philadelphia
ի
headed
##inas
prevents
1782
lund
adorable
mainstream
##bley
beard
brutal
often
forestry
sniff
##pt
##rill
navigate
administrators
friends
deposits
surveys
trouble
mushrooms
##dote
##oe
moreover
creeping
##ek
iona
appalled
meek
signifies
stud
psychologist
save
shattering
yellowish
+
bracelet
regulations
jupiter
##uch
ministries
1701
faulkner
##尚
astronomy
##ds
strip
olsen
passport
##rc
##ntal
births
endure
[unused295]
[unused866]
bosnia
ek
reinforcements
representative
gunther
ray
satellites
singapore
storytelling
reconstruction
fredrik
##ₙ
maternity
##lary
gathered
amusing
sloop
sk
interview
bangor
##phobic
##tson
[unused788]
swept
advertisement
knowing
divorce
lai
outgoing
carmine
fiscal
amalgamation
minority
##ire
markedly
ம
」
discipline
cbs
fairfield
child
reforms
sails
龍
##phic
vacancy
ze
1727
##vez
whose
お
vin
intensified
subdistrict
tribe
favorably
pirates
trench
dreamer
nec
[unused722]
myra
##bble
##家
abstracts
suppress
drilled
progressing
tunisia
##carriage
##山
150
began
leisure
##tron
silky
veto
52
870
[unused868]
prussian
##lp
##lee
½
mistakes
##glass
widow
oregon
165
arising
voluntarily
ritual
##akh
lawsuits
1875
ʎ
congo
vhf
sud
##ა
accuracy
voyages
##正
yank
1580
grocery
fighter
compulsory
wei
hoisted
##graph
admitted
fuscous
[unused869]
13
nissan
intentionally
dubbed
1646
brisk
##ß
commemorate
syndicated
swansea
heresy
pale
##ধ
slice
[unused32]
extinction
consonants
##creen
suburbs
walled
air
premium
minus
refugee
repair
palatinate
cleaning
##urn
anal
dora
barton
conventions
reject
scarlet
##lation
##ischen
serviced
##berg
##弘
shakes
33rd
digit
perfect
##ulsive
1630
antwerp
expression
hove
pollard
⺼
1765
##ties
chef
extant
knees
prussia
boutique
graders
internship
narayan
vince
mid
##ata
gearbox
format
ko
alarm
organ
reared
township
outreach
accompanying
л
78
clutches
morale
bottled
##rank
shallow
northeastern
jj
disgrace
residual
##lon
tuesday
roaming
##dome
mixtape
beaumont
bug
maestro
colours
swore
peabody
formally
iberian
desert
buick
nonsense
##ch
strangely
eighth
ranger
tinted
screenings
emergency
cat
curiosity
1741
##rrard
outskirts
balancing
##uaries
presided
chords
seton
game
mallory
£
acknowledges
49th
mcdowell
##ool
pairing
safely
в
ण
folly
##kling
associates
polymer
scalp
exhibitions
##劉
solar
[unused255]
reprint
##avi
signing
##rgeon
taiwanese
tackles
tie
00pm
elisabeth
petersburg
mri
spending
bradford
eileen
chemistry
sax
memorandum
##kko
dixon
joseph
[unused745]
attempts
##jer
suns
cry
##成
##bbed
sudanese
volcanic
quota
attaining
beatrice
domain
realms
experiencing
restricting
beginning
[unused728]
fontaine
rebecca
frankish
basin
polling
##sc
incredibly
harmful
idiot
ivy
equilibrium
competed
##uche
nave
individual
oboe
pay
##sts
1855
##ł
chalk
frogs
##at
anyway
prefect
##aring
logistics
kat
guinness
becker
fever
flinders
vigorous
pens
##ttle
deux
fiji
agitated
vladimir
tractor
italia
holster
alla
seasons
128
drastically
##ল
##taff
mermaid
aus
##owing
sami
pc
spill
conducts
##法
predict
pension
technically
karma
##voking
twenty20
政
louder
mla
avery
子
κ
sped
##hed
##nia
distinctive
erebidae
##nson
congratulations
##wise
ⁱ
linger
backwards
eun
##ental
##pic
narratives
##bal
hiram
sure
##lating
isaiah
truss
maharashtra
attendees
[unused216]
francoise
##ŋ
grips
loosened
[unused387]
athletes
captures
scratching
##ein
enhanced
jealous
tennessee
selling
rake
insight
letterman
##ately
vargas
quarry
biplane
shelly
hive
1915
##rza
knock
mythical
overlap
##ction
##nca
blurred
memoir
tierney
ants
arranged
vincent
representatives
focuses
overall
hears
inc
33
##hyl
い
abbas
bundles
lame
ς
##vis
rushed
(
esq
knights
profoundly
##ong
##書
malabar
saudi
##ug
luggage
##aco
tanzania
chamber
otago
##oids
sw
##ᵐ
spilled
1651
synthesizer
terribly
operas
flower
chronic
browning
stevie
acquired
ordnance
apprenticeship
responsible
reunion
leonardo
##み
she
fear
##bana
wise
killing
itf
sai
[unused844]
redding
deepened
##ous
chemical
collects
farther
instantly
elm
##ances
##geny
ns
blushed
covering
sunrise
gujarati
##km
genocide
sheer
diocesan
multimedia
rook
emerge
stepfather
slant
token
digitally
villa
thirteenth
[unused730]
explained
bibliography
grille
patron
##rra
##zzling
conducted
offenses
”
hunted
remorse
followers
prejudice
chieftain
mercy
ee
borne
practical
rochdale
##⊕
touch
atlas
blinded
delivered
flawless
##bid
led
g
meritorious
##福
lauren
##tagram
hancock
##bh
announce
overlooking
##iano
##uf
minerva
myspace
[unused378]
212
340
drury
remotely
serial
[unused408]
##ula
peace
##lco
clerks
posture
pleased
subgroup
searing
siberia
##rrier
1736
friendly
##lock
bathurst
tropical
##ate
go
exist
pumping
reunification
wondering
##ץ
holds
latitude
wisconsin
years
oblivion
##onia
slide
espionage
forbade
kaitlyn
banjo
padre
visually
spectral
anthem
[unused207]
bilbao
1958
##nov
rebels
membranes
jewelry
honeymoon
justin
1880
##ctuated
intend
כ
salty
peeking
beneath
sheets
fixtures
marne
##µ
least
ל
duration
fatally
olds
##cturing
someday
flanders
and
rate
must
stables
[unused956]
##kata
downs
kade
transitioned
tree
unfair
ca
weary
plead
worried
benz
barbados
byrd
[unused769]
136
ran
##runner
constant
hammered
##gonal
behavioral
##辶
pediatric
##rso
complement
bharatiya
plaintiff
politician
##ج
gleam
steer
capcom
raked
baptist
ache
celebrate
##ega
weeks
##din
bell
appear
##logic
[unused332]
##এ
compromise
##erving
##aling
cyber
##fra
blonde
buena
pack
puppet
mass
enraged
##ema
##ssing
##mei
blades
partly
##ვ
da
intersections
soto
##land
biblical
##bia
formats
totals
judging
tim
peerage
##º
animal
prof
[unused389]
pennsylvania
eyebrows
angle
trustee
abe
##mann
theodor
punjabi
momentarily
場
parker
postal
columbian
timeline
[unused258]
mile
surely
1672
##schaft
prosecutor
pneumonia
1621
birch
north
soldier
##peration
hutton
daryl
compares
orchards
cock
dom
##nt
upside
baptized
pendleton
奈
##be
silenced
##oo
kingdoms
motive
##dic
##sibility
resigning
sprinter
violently
skins
searching
zebra
##ngen
listening
##hardt
actual
arte
##ron
##‑
pm
[unused578]
trends
hindwings
##«
cousins
systemic
landed
ham
avalanche
persistent
ancient
##nist
harvey
frequently
##eter
sergio
49ers
lineman
tons
coupe
courts
effectiveness
tornado
restrictive
##宿
##olt
investigations
looted
##ap
##pit
lifestyle
electronically
off
radcliffe
##aar
jesus
##ush
awesome
fours
designed
disc
enveloped
pepper
hunched
sequels
trump
zoo
unnatural
[unused485]
temperatures
##ax
principality
integrity
doubled
individually
##lip
1806
regularly
superiority
caretaker
polite
stationary
willis
commanding
aggregate
anaheim
robbins
##avia
interviews
extracted
gdansk
zagreb
factor
lange
##neck
countries
234
father
##rac
owes
bukit
competent
##ᵇ
##lithic
finalized
##br
eli
corvette
slaughtered
basha
##oia
leone
mama
mercedes
−
##sh
groups
stiffened
hanover
lectured
imposing
basque
olivia
archway
stone
punched
research
##・
[unused299]
365
design
ן
2005
parchment
##sa
hot
facility
minnie
messenger
chambers
screaming
specializes
##ง
##fe
businessmen
providers
recordings
##zyn
##rail
guido
marge
looting
swamp
cure
differ
limp
jew
sighting
##omba
fairly
outlook
cemetery
dread
7th
winnie
[unused199]
lent
##bourne
leaps
proximity
figured
rig
funded
emir
[unused283]
barking
jill
##loid
##ori
##ores
tear
[unused395]
garry
[unused338]
##ol
##rov
small
orchard
##cise
upgrade
##drik
grimes
nad
selfish
seeming
ss
##tail
tipping
therapist
323
drank
##ն
hamas
thatcher
discovered
negatively
dorm
##dis
formal
fleming
##gus
reasons
##松
judge
burnett
fast
fellowship
playing
brakes
vlad
touring
legends
[unused711]
##havan
apache
assumed
myles
radiation
rammed
swiftly
okinawa
signatures
reform
abuses
glendale
antiquities
cubic
prose
##mbo
recruit
##白
castle
clown
##tiv
##eo
frowned
dough
salamanca
threads
lopez
recorded
alam
happily
brotherhood
patented
observers
lodging
##usions
idaho
comes
learned
tatar
strapped
shops
##т
marrying
რ
##ilo
climate
fist
tricky
blockade
matthew
billion
gates
alberto
pounded
##ab
materialized
tx
lads
ᆼ
737
bauer
fresh
立
median
founders
spontaneous
riding
presently
practices
burt
potomac
acknowledging
reluctant
10
indirect
tops
brink
inventor
synthetic
cross
##hom
##islav
keyboards
sights
silvio
[unused491]
##lated
##ʿ
pirate
##iche
spraying
ম
bohemia
optimism
darts
bargain
taxpayer
##ection
##hered
elbow
##adi
incentive
philosophy
surrounds
technology
[unused592]
ambulance
veins
[unused964]
##]
հ
purposely
merely
viewing
dolphins
rally
chiba
having
tingle
jumping
##ᄀ
oasis
2002
##onte
strain
tis
##lay
bangkok
sima
merging
agreed
##八
crowe
communities
compare
constructing
##ament
fledged
distinguishes
1938
systematically
cbc
##holes
clemson
1926
rosewood
##よ
bird
conditioning
discussion
doorway
flexed
nam
wcw
##aer
antony
##weed
##aging
weight
##grapher
##rano
genevieve
undrafted
gill
showcased
skeleton
##lb
commodore
chancellor
inspectors
port
##aya
[unused631]
grimm
dunne
comedy
##eville
smell
eve
historically
##■
isabelle
inequality
me
##oop
draped
substance
##pha
recalling
expansion
##ppa
prom
zen
##星
[unused205]
##vina
4000
cosmetics
builder
[unused908]
spurs
funk
knitting
沢
fujian
trickle
##uso
goldstein
afforded
longest
umpire
anxious
group
coulter
lottery
payments
[unused630]
##dington
wilfred
fights
##hul
centimetres
hostile
lp
order
crimes
braun
##小
bruce
[unused658]
obstacle
difficult
fortunes
を
##uel
challenges
food
proliferation
143
olive
skipped
##urity
##ゆ
sex
whispered
interrupt
yanked
15
electrically
commemorating
##kim
decks
moldova
steelers
intriguing
ticking
indus
1830s
[unused425]
##tique
insisted
ン
coordinated
prophets
specifications
subdued
##nder
surgeons
crush
rowe
plasma
bourne
indicated
56th
complaint
jase
jurisdictions
creek
##kan
schumann
vectors
cursed
supremacy
costumes
kristen
flavors
worries
gifford
1828
[unused171]
recoil
hannover
indefinite
mafia
mag
grossing
mustard
goodman
pakistan
authors
problematic
gabe
nationalists
childhood
niccolo
[unused421]
##sir
lateral
##ᴺ
participating
fame
##rade
grinning
##rain
[unused23]
johnny
riaa
shredded
drifted
jimi
##usia
covent
laird
minh
restore
mixed
nitrate
alonso
##cultural
##yev
guangzhou
##ho
gina
teens
[unused361]
##高
##ko
cathedral
monk
incorporating
##hima
feasible
forever
##sted
64
140
advertisements
episodes
surveyed
distress
loneliness
utter
glee
ク
[unused307]
（
rippled
vest
query
##不
tenure
##idi
debuts
spit
freely
benedictine
brewers
narrowing
cold
receiving
[unused901]
grange
一
dimly
kinds
sixteenth
hubert
cleveland
hamid
lighthouse
##竹
booker
got
secretly
bearded
claus
reputed
listener
warmed
boyd
60th
torino
broadcast
boulders
drowning
nils
smirked
outnumbered
involve
genius
repertoire
travelled
400
balthazar
imagery
medal
coefficient
populations
ส
crypt
च
!
里
su
aleppo
constructions
narrower
##erian
##es
nrl
[unused149]
##hit
##sb
scraping
chaired
##selle
foundation
##kovsky
din
##oj
stint
##ehan
feminism
marching
yielded
butterfly
##nikov
eastwood
intersection
pistol
##心
ages
ක
dietary
##line
composed
##田
##hein
risen
sears
talks
め
##bay
year
charged
disagreements
denial
##psy
sediment
knot
condemning
gallagher
ة
grasp
reactive
goddess
स
gail
pondered
specializing
##ropriation
noel
ो
rep
jagged
angles
dialogue
participation
insects
##chy
nonfiction
spirituality
typed
dhabi
opera
elton
guild
amazed
œ
gavin
marquis
santiago
##aghan
unspecified
interceptor
antonia
pollution
[unused518]
pentagon
elementary
gemini
monitored
seeks
vicente
in
##orin
##ntes
copper
mps
女
[unused26]
concerning
≈
dia
assistants
defending
length
246
1811
racecourse
##ving
francais
constituency
pennant
centro
collaborator
nelly
supported
mythology
##⟨
falcon
##₎
##pop
entirely
fargo
prove
raises
southwestern
credible
spark
contested
sentinel
bring
ワ
chose
under
orb
##forms
##achal
☆
sam
##uge
sugar
##tea
##区
outdoors
##zbek
lasers
huskies
howled
298
##23
dizzy
migration
possibly
180
habit
[unused808]
assumptions
##out
##mide
savings
231
priorities
adjustment
originating
carmel
painting
badly
##gawa
sweetly
##hini
angular
supervisory
specimen
[unused663]
inscribed
baja
##rge
[unused834]
##iated
address
big
hollis
abduction
##no
##bula
endeavor
lift
chicken
inhibitors
##nium
##‘
graduates
slashed
taft
##ites
##rang
reflect
computer
sizes
musee
estonia
procedure
ai
celeste
palms
##iv
programming
##take
[unused725]
morning
endorsed
[unused136]
packets
capsule
wednesday
mandarin
dressing
remy
##rich
miriam
tool
condoms
##bat
mckenna
##gna
1793
simplicity
ethel
治
##quisite
##raine
referring
##hre
consisted
optimal
[unused743]
raft
linux
persians
modified
hectare
rosenberg
empire
reviewing
arch
bertie
supervising
kilometre
##_
##л
sprinted
morris
##aking
##nah
[unused840]
reservations
obliged
incorporate
theologian
archer
將
guided
289
##鈴
##dden
totaled
soho
##{
tremendous
messiah
##jured
predecessors
carmen
reduction
##ija
evil
hickory
##ako
operating
favour
##otti
extras
artifact
separated
4a
doherty
##act
[unused777]
saskatchewan
##imeter
elites
fischer
belts
parsons
pursuits
testosterone
sip
spectator
sweep
##eem
appendix
teachings
hovered
edit
m³
##base
jared
غ
##brates
fulfill
neighbours
filthy
national
siam
princely
geek
lex
##定
cart
www
pride
subway
bien
##hei
ahl
medicinal
cinema
##fall
jews
scholar
promotional
christopher
cad
##lewood
multiple
castro
olympian
competing
office
##ζ
swaying
trout
composing
##ls
advisors
##americana
古
butcher
apps
shares
grit
nepal
blinking
##vid
dunlop
##icide
ethanol
##rke
slipping
showed
##ades
guillermo
##atics
wesley
mcintosh
swami
surged
##vr
##furt
explosion
performers
arousal
##itaire
intra
abstract
chattanooga
fibers
##mus
simplest
##lia
girls
1900
creole
נ
##broken
cadet
##utter
bore
silhouette
edwards
josephine
blow
cyclones
paved
picks
##gun
noise
symposium
packers
##ム
##sworth
љ
fare
summary
province
##da
1760
pleaded
ව
celtics
[unused54]
colorful
factors
shove
handle
##ale
absolutely
bread
cultivation
##gum
fails
gift
[unused889]
draw
mound
romania
rosemary
solutions
elf
gerhard
throbbing
##ى
conjunction
norms
##stituting
renaissance
briefcase
##ically
##pps
beef
decoration
descendants
clothing
paris
##finder
##lina
##ය
[unused608]
##θ
dominating
##a1
hoc
ལ
##ried
ш
convince
##yre
announcements
11th
retailers
roth
reptiles
scores
actions
sparkle
[unused771]
permission
##dict
##urrent
vault
virtue
ferry
propped
witches
bikini
[unused522]
ᅳ
northampton
##和
fife
portugal
dfb
gasps
matter
ensembles
argyll
cal
foliage
ு
##ilis
prowess
earrings
##arion
mimic
##lington
crab
yoko
chromosomes
relaunched
nitrogen
assemble
##ungen
armand
heating
crimean
investors
calculate
pieter
powell
supports
##fed
stimulation
shy
##ennial
[unused142]
periods
whipped
##section
》
pleas
representing
zombie
foods
licensing
[unused40]
barns
patting
repeat
humble
2013
endeavors
assisted
##gan
marquez
net
##б
challenged
cognition
queue
238
##;
西
335
underneath
ecole
friendships
incredible
injustice
alternatives
marcel
experienced
##yr
mono
propeller
minister
370
telegram
transporting
medicines
released
contenders
impacted
lime
policy
slicing
aesthetic
##mber
良
buyers
conde
highlands
##leigh
sketch
shrubs
##江
revolutionary
regatta
beaches
ट
##cote
crested
horticultural
immigrated
jumper
‡
bears
bennett
##avs
prepared
##ius
##oku
permanent
[unused534]
compositions
##`
smeared
##rita
##uti
carthage
##nsis
##チ
candi
manly
##vington
38
rudder
alleviate
shipped
multiplied
##gre
ア
rugged
spouse
includes
##rdan
##fan
denying
##iii
##tua
partisan
##oof
honneur
later
property
sonny
antigen
trooper
##ulu
##ky
hundreds
recently
##cing
maud
spatial
dmitri
squinted
dickens
##pu
evergreen
executives
outbreak
hassan
greatly
societies
serena
checking
##ond
lafayette
郎
secretariat
gravity
drug
dazed
expansive
impromptu
##sten
congregational
designate
racing
else
deputies
[unused164]
##ury
##仁
childbirth
narration
psychology
1850
vimes
plump
##rite
pose
##skaya
公
##₍
spence
mba
191
193
500
cooks
equatorial
dining
1950
##elis
studio
field
skepticism
spotlight
steaming
again
clones
yorkshire
eclipse
##rzy
fr
nay
gt
directed
39th
georgina
##ange
system
vii
loren
ridley
straight
24
towns
deliberately
##rea
##lly
[unused346]
naked
[unused708]
comparatively
[unused710]
enoch
magnet
catalan
raining
section
bikes
really
##ibar
54th
##loaded
##kled
##ytic
cedric
donnell
disappearance
irene
randomly
inferno
objective
passage
serbs
derivative
##ible
stryker
50th
consulting
1957
settling
mirage
##orus
bile
##koto
concessions
colts
##66
lennon
lamp
agony
par
altogether
provisional
thoughtful
dalai
painter
monitor
[unused943]
ml
久
bare
mattered
think
pasta
groceries
##kawa
mitochondrial
avoids
ras
indications
earlier
showers
toledo
receptors
mechanisms
faintly
arriving
brant
swelling
雄
euroleague
##tania
charlton
repay
sphinx
losers
[unused286]
tracker
##physics
accommodate
ached
manipulate
descending
gilbert
patterson
protects
##lz
breakfast
oceania
attractive
elliptical
allocated
frost
hazy
##acion
aquatics
supplying
eucalyptus
thermal
##40
alexa
[unused803]
outfielder
paranoid
practitioner
directorial
cedar
peyton
evangelical
##nished
essentially
remains
royalties
celtic
shrugs
expressions
adventurer
1762
causal
juno
honolulu
translucent
[unused401]
dripping
endangered
sweet
torque
dq
297
halfway
patrons
madonna
matched
simpsons
automatically
approaches
confesses
##仮
hurley
prick
holt
drain
readers
modes
##y
lattice
sustain
##cave
coming
novak
tri
witch
##⁄₄
enlisted
iris
[unused870]
required
janice
dion
berries
sc
##jana
##tar
overhead
kowalski
savoy
granddaughter
##pus
commanders
sentiment
promoter
282
culinary
longitudinal
cavendish
cardiff
majors
initiated
rapids
serbian
swat
wheels
##מ
quantity
wien
1695
devout
mori
hideous
rise
swan
1997
[unused51]
godfrey
ང
##bel
##r
globally
parties
##arts
##utive
##ce
36th
##itating
dense
drunken
##stis
3d
husbands
an
antioch
caution
popping
##sg
formula
rotate
preferences
[unused770]
injuring
hangul
twinned
whirled
##rius
[unused252]
nato
momma
bear
decomposition
heel
comprised
##ann
##vite
ter
sounds
##ets
students
diploma
conor
inviting
reliable
deployment
footprint
geared
wars
skills
consultancy
observer
##51
coffee
cherry
elias
glorious
garage
cycling
##bson
paradox
active
pratt
##յ
##vian
shards
上
h
pine
kv
lou
tandem
daze
planting
copies
sweetie
##uary
lipstick
cautious
newest
thanksgiving
##メ
im
mathematician
nestled
pitchers
ulster
refuge
flaps
stumbling
[unused118]
aerospace
autonomous
##ient
##zak
credits
preferring
wells
acton
cash
ʳ
2d
##evich
gma
metals
arcadia
intercepted
perceptions
beautiful
ju
##ragan
ortiz
##「
1629
simon
tasmania
deteriorated
martinique
##link
##楊
districts
lyman
firmly
blah
adrian
ে
scripted
gallon
1661
##coe
##rde
exiting
##mation
tate
begs
puget
さ
##inger
gauge
insignia
##sfield
horatio
alignment
hangs
##止
grip
environmental
vain
##vial
##mmer
sensible
voters
dissatisfied
clermont
relocating
shores
selective
rating
tumbled
##rle
clapping
printed
##udy
contracted
liechtenstein
pep
[unused153]
rr
enthusiast
dangers
assigned
sap
survivor
##つ
involved
behave
lasted
blackmail
guildford
advises
jerked
workshops
rallies
hq
advanced
alumni
fixed
##mb
960
##tv
whispering
updates
clement
isle
velvet
##cript
ind
accordingly
skirmish
taste
jammed
regained
metabolism
spanned
embarrassment
subsided
relaxed
electrons
1906
##合
colour
##pts
on
enrico
our
liberty
principal
highness
##ere
##tly
1971
darker
ryan
hd
##ox
masterpiece
infused
sovereignty
metres
##riz
bout
fence
welsh
##od
enjoy
refit
shifting
mysore
##ption
##ბ
professions
き
exhaust
hydroelectric
ems
communicated
medications
removing
identity
[unused405]
nigeria
forested
[unused373]
elliptic
waste
##urg
##pl
##burn
avoidance
reproduction
##ite
wrestler
arguably
rides
savior
[unused462]
parkway
classify
222
skill
destination
marketed
ally
##uration
broadband
optical
jimmie
qc
##久
##jevic
cardiac
cambridge
c
eighteen
haydn
uncertain
##avian
ban
##ogen
beams
categorized
finely
忠
[unused807]
##udes
assure
atlantic
delightful
altar
–
undefeated
weekly
##dley
##urance
underlying
etched
uci
ɴ
cuff
juvenile
##ᵤ
##iter
##я
clarify
salisbury
judy
acquitted
augmented
##jn
mckenzie
mirza
wyoming
peered
attends
plastered
item
##eim
words
##cy
distributions
schedules
tape
winslow
mortal
kamal
dauphin
tasks
reside
jess
necklace
##scia
π
joshua
enjoyable
benson
490
jewel
works
musically
camden
@
tenth
##ital
occupies
elizabeth
meyer
tex
##ctive
jihad
recommended
accommodated
dragon
representation
##hedral
##wave
hurting
tentacles
sul
oricon
##ford
rodeo
attracted
serving
systematic
194
greek
##tes
crooked
convoys
tests
bulldog
fallon
nobel
fontana
pumped
galileo
leveled
scientist
afghan
talbot
##sford
indigenous
chained
recruiting
venture
[unused481]
gender
##lley
image
papers
dade
mtv
##cake
greeks
somebody
harvest
##nick
##mission
##raße
bartender
fewer
grill
proposes
answer
explanation
abigail
malone
expenditure
freeing
##evic
1822
nicholls
rankin
winger
kitchen
estates
paradise
bar
meal
amelie
##tre
histories
define
##chon
fang
yourselves
du
pensacola
##nb
emails
gallons
swords
[unused352]
doctors
##♣
depictions
han
vine
##mins
therese
heartbeat
editing
pays
##hof
eden
look
squash
never
jeff
##44
prized
##hy
textures
riches
syn
1856
speeds
redevelopment
tapestry
[unused443]
##明
herds
fender
counseling
politically
opportunity
partnership
healed
marking
シ
加
renovations
##top
summit
retired
##ags
##き
geographic
knew
stresses
unitarian
georgetown
bassett
guangdong
burger
provided
##eses
revolutionaries
1814
##under
opt
pointer
wince
collection
protections
##pel
patrolling
stored
supporting
takeover
si
nonetheless
##த
##aus
baptism
marsden
dazzling
stripes
armenia
spacious
restraints
davidson
denominations
invitations
posterior
sol
hahn
##eux
##秋
flirting
ignited
vibe
bmg
richer
##cture
105
cornerstone
##त
[unused915]
britannia
ambitions
seemed
40
locations
delaying
dude
##yne
viscount
ा
gonzaga
pattern
japanese
##0s
[unused437]
algorithms
gasp
nile
industrial
stall
london
tumor
hedges
underwear
springsteen
ᵒ
##lde
##shed
everybody
indeed
wireless
[unused193]
arrival
victory
dwarves
grown
recycled
toyota
established
elegance
biologist
unsafe
⋅
[unused281]
##inations
indo
##ken
pertaining
flawed
markets
slovenia
##nged
rna
##ђ
blogger
checked
marino
concept
[unused754]
fray
wed
egypt
dodd
##ٹ
singled
regardless
bombers
disappeared
[unused74]
mir
superintendent
[unused487]
predatory
investigates
introduction
rim
buy
##hend
noticeably
##en
disclosure
##na
overthrow
ruthless
budgets
traitor
justification
206
plight
##bles
##crest
##vos
niece
##bas
nowhere
rubber
##nard
survived
義
fastened
prisoners
tuscany
ᵀ
educational
buckingham
soil
cookies
##ys
assembly
podium
ラ
1863
civic
##gr
cried
saxophonist
##wr
picked
sir
clutch
ever
glasses
influencing
neue
patted
moor
116
##romatic
germanic
iowa
tobin
citadel
[unused839]
botanical
ama
volunteer
##eva
honestly
loosely
##lwyn
dammit
hung
proving
devoid
##rkin
radiant
woodward
₁
proudly
fatalities
5th
duane
luna
##cola
##nan
puts
connect
helena
sugarcane
##lie
characterised
lines
blocked
aggregator
cathy
chichester
word
derek
"
abolished
sofia
guerrilla
新
capability
preservation
plural
possess
##inga
##wl
##昭
##iac
##郎
mask
ness
##ω
##უ
##wski
[unused734]
proponent
##umatic
exceptions
uganda
##iation
chemotherapy
##let
assumes
##ffa
index
loco
billboard
##une
athletic
reg
##°
rescue
claudia
portage
allied
intimacy
eleventh
hermitage
receive
##uously
##tangle
31st
masonic
##utation
retrieved
##吉
##going
fill
fracture
##ы
##־
explicit
flashback
bloomberg
welch
army
##cle
entirety
hunger
progresses
##π
##ger
##ify
##uring
thrash
men
shepherd
ponce
trains
hawke
##ult
minutes
warren
alessandro
##ider
[unused482]
baltic
liturgy
´
uncovered
1979
housekeeper
divine
reliance
secured
realised
##insky
sort
tend
craving
glossy
congressman
י
wr
della
##ness
placement
trapping
nancy
clutched
402
whales
legally
##champ
[unused96]
extracts
spaces
vineyards
know
stafford
##ʋ
##yed
aux
revolutions
interfered
moon
##wire
statewide
transported
##ering
332
gulp
winked
hilda
reformation
extensive
rub
bafta
inaugurated
revenues
unmarried
漢
avant
prints
ralph
crewe
li
boarded
k
owens
[unused715]
catchment
hardwood
franklin
emphasized
##nl
1862
epstein
##met
kashmir
slowing
regan
cannons
elected
oxford
uk
vulnerable
##atus
●
armando
stereotypes
##tino
heaving
##ba
dragons
notification
reclamation
include
segregated
tying
yale
turns
[unused192]
spines
##kie
briefing
##has
decker
desirable
forefront
heinrich
annum
commune
largest
##esh
mcdonnell
leipzig
translates
valiant
auschwitz
reception
##tan
das
days
if
victoria
erected
isolate
##戸
bombed
freedom
##laze
fractured
graded
##lton
242
admissions
profiles
ripped
timer
##rata
[unused474]
jail
و
##gs
varieties
1733
ridiculous
[unused174]
party
meyrick
fx
entertaining
##ieving
robbery
##lage
##保
##ldon
hush
##氷
nell
raul
beaux
##ado
##秀
upbeat
白
styling
chiefly
annette
##isance
francois
[unused694]
##enberg
##inated
435
boca
defiant
shuffled
dvd
vector
catalyst
forming
haas
une
##mind
california
guard
went
7
op
sites
ronin
utilization
appearances
fencing
mitch
##く
jurgen
nueva
smiley
##worth
cars
floyd
##odle
juliette
1016
mild
ymca
collier
##rogen
davy
brackets
##ural
##tow
kicker
quotes
monster
caitlin
offense
radar
navarro
antagonist
orbits
olga
##wala
burnt
##ada
[unused241]
outrage
drew
kit
parasitic
seconds
##rani
lazy
repaired
behaved
prior
blindness
links
ecumenical
whatsoever
apple
55
briefs
western
##jiang
wary
##lling
countryside
regiments
forget
る
##ads
pea
pulls
##ios
electors
boots
##osa
doctrines
goth
begged
##sky
grammy
##ril
causes
firstly
149
darren
delays
bucharest
sometime
1870
gala
nh
achievements
patrol
175
backed
£3
jubilee
movement
explanations
chronicles
##ioned
##ג
turbines
qatar
##vers
##⊆
redesignated
belle
rudy
disorder
marlborough
commissioning
shattered
shortlisted
thessaloniki
welcomed
evolve
maple
afternoons
donate
mused
royale
rest
tuberculosis
unreasonable
spin
universite
homemade
##kell
##8
[unused341]
erie
##uka
##ying
gangs
straits
cynical
##ides
37
bells
amazement
versions
sewer
deposed
##∇
[unused992]
[unused98]
amid
hopper
moisture
##ச
mumbled
managerial
[unused860]
pts
usaf
guardians
programmers
hate
##च
dreamed
gray
[unused526]
booklet
hari
ravaged
softer
sixties
instituto
novo
sm
til
##ե
ј
##rug
##cci
daughters
letting
##lik
correspondent
february
clash
incidents
##ah
baked
energies
iconic
gorgeous
##page
vegetables
isolated
dwell
accelerator
##orous
captives
posts
##ck
conclude
max
catholics
##rid
##פ
distillery
trucks
##itor
operator
levels
tirana
[unused317]
fences
biology
[unused235]
vertigo
##bert
hip
olympiad
perrin
ა
saga
##rran
##arable
##jong
unity
##nde
robots
temper
镇
amman
##林
moffat
1784
plume
##dna
reyes
chopin
mandatory
ramps
ellis
rocker
##sable
kolkata
lithuania
guatemala
##itis
##gul
martins
shotgun
specialist
deported
##shin
catastrophic
consecrated
##logie
groan
resides
wc
chick
##per
ष
concentrated
bedside
apes
andrey
hiv
##lum
electric
huddersfield
ode
1791
clinch
##overs
##stered
barnsley
##bes
##chemical
cricketer
nonstop
paraguay
sting
pembroke
clergyman
exercise
bolivian
##ulum
obsidian
sarajevo
illustration
accreditation
hedge
##iques
temptation
transformation
##上
session
wipe
kepler
munchen
journeys
hiroshi
initially
scared
venom
##wd
slain
lakers
technologies
原
##inium
startling
behind
##wick
hazard
virginity
ख
##ecure
ballistic
right
ք
linguistics
once
##lan
##bin
##eves
picket
avatar
readily
andersson
##iah
mildred
##sberg
pursued
ferries
contacted
05
exhibition
##uron
contestant
##ena
##ensis
[unused509]
##rse
impose
agriculture
heroine
##ishment
elgin
sincerely
firing
physician
terrified
mer
struggle
ideals
obtained
spawning
##verted
denies
kurdish
[unused206]
forerunner
[unused800]
camera
doubt
121
[unused6]
slacks
viable
##±
parental
irritation
marine
anatomical
gabby
corrosion
ragged
pronunciation
markings
periodicals
1914
boiler
depart
mustang
sidewalks
versus
##rdes
jessica
##rage
galveston
##person
bite
jonny
paler
с
village
##ھ
[unused784]
confirmed
手
##一
bean
leon
motto
eduard
jacques
overseas
contestants
sampling
[unused661]
patio
forms
neon
wisdom
alterations
arun
[unused649]
crosses
respected
disneyland
##ero
watery
equally
verdi
##ttered
sparks
cappella
##hila
peripheral
°c
方
##basket
nicky
##ner
casket
##ulator
spear
[unused391]
establish
perspective
##recht
karnataka
mixture
thanks
barnett
intervening
##mering
nearer
testify
[unused274]
##ials
inference
##tlement
impetus
denounced
desire
aim
unmistakable
rotation
##ш
date
installed
bonn
residence
roses
shocked
##owe
305
##ening
##old
designers
disney
expelled
##kind
renovated
misunderstanding
##iful
examination
bach
precisely
weakening
labor
shaken
##rina
##版
taboo
rank
mckinley
aleksandr
pad
##כ
grey
ethics
stylistic
##hus
nagar
failure
greene
invite
##nza
[unused925]
車
##open
ballet
##s
joining
pulitzer
##borg
##г
disadvantaged
f1
packaging
excluding
treated
##2
##lang
forks
sinks
excavated
[unused212]
truths
tyrant
canterbury
##rsten
##ply
##sor
dripped
socially
##。
caste
crambidae
poker
cornerback
hesse
##iji
gunter
260
nickname
only
supervision
sensor
terminus
beyond
##dian
turbo
sumatra
molecular
mounting
ᴰ
kilda
##aa
lori
letters
insists
scan
alert
amber
##vana
##iana
classified
##bir
jang
##後
ties
offerings
[UNK]
304
##flower
[unused19]
lacked
##camp
realising
##lav
[unused93]
ᵏ
networks
clair
inhibitor
academic
teddy
danny
venezuelan
imaginary
worth
？
assault
breathing
disappointment
protesters
gypsy
shouting
tiberius
confess
dresses
conceal
standards
³
hurry
dyke
cinemas
timmy
next
[unused759]
discrimination
devote
cured
##ර
invincible
1717
happened
[unused3]
##ttes
newport
felicia
kildare
parramatta
1659
building
transgender
##›
inexperienced
pba
quarterfinal
[unused569]
mu
erupted
##bered
##sity
##¬
[unused156]
fifteenth
needing
peanuts
caf
diagnosed
£1
helium
graphical
gods
wasting
ion
guru
croft
##fold
educated
responsibilities
eaton
seminary
arrived
moroccan
lawyers
relevant
madeira
540
pickering
##nh
pulsing
##cts
chest
cbe
disregard
holden
massachusetts
fleet
melville
passports
satellite
carving
genoa
thistle
real
##ovsky
anita
##ship
##eiro
##歌
##sie
boxed
falsely
reached
jingle
sessions
directs
table
documents
withdrawing
terrifying
##ep
245
##[
qualifiers
phoebe
salvation
crystalline
clary
prototype
##力
marina
##il
bulbs
এ
mussolini
##itation
bury
seeded
sect
##lite
stammered
promoted
ᅭ
density
upgraded
[unused597]
scale
##sell
spp
devastated
brothel
classic
grandma
##kson
arjun
astor
fusion
flicked
positive
snatched
rm
genie
projectile
shout
invasion
aren
path
##bs
##hausen
constance
varied
や
fullback
organic
portions
[unused848]
flyers
escalated
##ux
voluntary
rainer
[unused500]
outstretched
521
complete
##urian
##rgo
parkinson
hodgson
##ா
leith
june
##ady
nakamura
##zh
[unused343]
[unused955]
prepares
warp
allergic
robb
accusation
##ou
mane
parasite
ע
[unused862]
[unused650]
##game
renewal
##qual
oaxaca
locking
[unused733]
paddle
##}
fabulous
knob
favorable
celebrity
##ration
##貴
christensen
3
blown
pricing
transmission
comforting
hailed
##ience
something
##ull
daly
##ones
1841
阿
##mism
thanking
titular
##dermott
clumsy
##phy
willing
terry
wallis
1833
980
ェ
bc
racism
specific
##vn
photo
titles
tia
gentle
restriction
##ec
##cin
annoyed
classmates
springfield
##⁸
manifold
derby
##ree
##water
michel
愛
sucking
##tal
[unused131]
durga
dex
uh
##թ
buys
sobbed
supposed
coinage
##cal
pitt
torre
##aro
##ddle
mar
humid
occurrence
228
bandit
98
##博
miracle
囗
purge
egan
##ri
##−1
containing
introductions
superb
##sities
tanned
##t
lung
paralysis
generosity
paints
quarter
boundary
poking
##mate
##una
[unused503]
comic
expanse
socio
peruvian
apostle
blush
##ach
second
£5
hms
##lessly
larkin
reinstated
neuroscience
costume
lily
rod
ogden
odisha
##こ
pulmonary
##年
##pling
1789
179
[unused595]
adult
freddy
##ast
marxism
proprietary
twitch
dove
miracles
cube
hello
investment
nut
traction
##well
representations
##our
dreadful
fungi
royal
voiced
##ʾ
backward
1989
buckle
lakes
senators
[unused330]
neighbouring
luftwaffe
same
slammed
promises
sporadic
autonomy
##oss
civilian
stanford
substitute
corinne
continuous
qin
##su
ᄃ
##adia
worm
¢
##kat
doctoral
##eres
contain
pearson
ս
optional
sevens
teaming
##vich
amos
molten
##wright
mistress
scene
sponsorship
rex
bureaucracy
stalks
patience
arrests
##zation
dormant
bet
vaguely
otherwise
loft
deserts
similarly
##and
##mah
parcels
serra
piled
taxis
discarded
matthews
##grin
##ʳ
seriousness
goldman
unitary
##hl
biker
idea
damaging
here
pillow
##相
[unused716]
ample
##mut
speakers
syria
ob
quebec
lifeboat
reveal
##pio
lashes
votes
##ria
troop
tombstone
合
1749
darcy
nominally
[unused315]
ə
ff
lap
sheridan
##key
unincorporated
garde
bulgarian
##haven
##oise
differentiate
rising
fowler
##rgy
##rka
heavier
psycho
##cot
hazards
##rre
##ams
##written
airline
chad
sharif
##izes
##nies
wider
candidate
cl
555
microphone
typical
[unused126]
informs
grumbled
opaque
rubbish
polka
1847
ص
horned
18th
fleetwood
##ny
betty
generates
manned
rains
baden
relic
##balls
[unused962]
baskets
##nica
bombings
dolls
decreased
##dah
counts
democracy
##gi
eritrea
##icate
ft
exemplary
lord
lindsay
richmond
regaining
##ape
midlands
[unused744]
merlin
م
principally
reminiscent
vet
phased
indicate
died
kanye
sven
modify
jc
alcoholism
extremes
muslims
severn
##vision
kelsey
rhapsody
stefano
##points
##gin
##iq
gastropod
ist
##rek
90
inevitably
steering
sticks
everywhere
hartman
##gen
stomach
ware
adler
base
brows
##tness
##ibly
##inging
[unused825]
comedians
[unused60]
41st
##jing
panther
immunity
axe
their
triumphant
##flies
oil
domino
aura
[unused786]
137
##anga
detection
playstation
[unused917]
greer
fragrance
routed
immigration
[unused122]
veterinary
fifa
gan
resources
keyboardist
coaster
craig
mortimer
scattered
##taken
bishops
shannon
##sham
terror
beverly
coincided
facilitate
guidance
landfall
morley
nexus
protection
vanishing
nanjing
##gaard
harder
replica
textbooks
nearest
।
省
make
1688
wired
dissertation
classmate
##ritan
immigrant
booking
##rnet
algerian
respectively
splits
হ
crowds
transmitters
highlights
intervention
⇌
##hism
##id
infantry
meetings
portraits
##hope
##lis
hastily
switches
%
minsk
odin
hawk
contrary
demonstrates
##wley
odessa
##ome
dissemination
browne
reigned
##cala
##ˡ
##urized
[unused698]
allowed
tier
nguyen
千
democrat
vaudeville
wilde
##py
[unused601]
sponge
undercover
kara
hating
sawyer
betrayal
eased
tapes
factories
filter
ole
##ona
wore
theme
swiss
grande
##fighting
renovation
[unused855]
vulcan
remind
authorized
##ب
##18
##sling
imminent
lesser
##र
##उ
##ট
demolition
##lena
hastings
wrapping
weekends
fire
boone
heels
##yla
##non
##ᵗ
ding
##⁵
footballers
posing
##acies
[unused89]
restrain
ios
pressured
spirits
increasing
favored
borders
##sible
assessed
##ules
##ak
##kushima
thinking
inn
ram
allegedly
cher
reasoned
raceway
sellers
thankful
##lings
##mble
rapidly
qualifications
verified
colloquially
ハ
##hid
##tas
##uze
linguistic
caller
[unused400]
sega
hellenistic
club
##qing
collapse
chu
implication
successor
parma
bangladeshi
concacaf
##ta
popcorn
[unused10]
privately
##words
##nin
degrees
mice
ross
delhi
faded
towards
[unused260]
habitats
##dance
⁺
quieter
rounded
oppose
jenks
strike
##uous
reprise
turtles
ᄑ
##kka
##tres
adaptations
sen
##dry
salary
sue
smuggling
atlanta
##iface
barrier
curves
envelope
state
mayors
engine
##end
basics
senior
alarmed
accelerate
lille
norman
installing
turn
head
ann
january
cartel
deeply
pilot
diaz
80
[unused348]
1886
gently
[unused187]
busch
haunt
1763
employers
moist
##tana
##roup
##he
kid
damaged
cervical
##uer
moving
embodied
district
loretta
802
information
##bbing
1980
liable
lc
causeway
latvian
bombay
永
##herton
magistrates
signaled
plateau
##onne
paisley
rape
proprietor
grunt
peeled
##isation
afc
475
bookstore
flees
structural
night
##ད
smyth
stroked
attachment
title
tung
smaller
shoving
##ツ
vikings
heather
sheldon
garth
‚
showcasing
##ten
salute
operatives
very
##yoshi
sufficient
shuffling
##ћ
hotels
subsidy
microwave
##personal
reeves
##eh
guarded
##iro
householder
wah
siemens
##ning
critics
[unused70]
∅
naturalized
jamie
##claiming
##ব
frances
teased
[unused616]
contingent
##umber
[MASK]
closure
##coming
192
cesare
interred
pharmacy
puff
succeeding
demise
vase
tensor
cassie
annexed
ligand
##igen
interval
pau
pedestrians
##ntino
lives
bollywood
broadway
##phones
claw
delay
##tails
pre
vegas
size
edible
stabbing
##ಾ
cicero
dare
dumb
corporation
formulas
##sman
##h
carpet
southport
darkening
vegetable
##set
header
##aca
debbie
犬
consists
elections
ह
##nch
##tled
cochrane
horizontally
mine
##fen
combinations
##⇄
star
[unused141]
holloway
##oud
##uj
choreographer
noelle
drained
hawkins
deciduous
overwhelming
##ductive
greedy
couldn
##moto
newsweek
knotted
villas
promise
夏
rigorous
societal
##lim
##ayo
cuisine
possible
variety
poster
somerville
ও
dvds
boasts
withstand
ate
##lid
##ulla
handicap
supervised
trek
##囗
argentina
deserve
grind
issued
##osi
tumbling
libraries
mclaren
prominence
tally
##ης
graph
stripping
ives
¼
##sation
odyssey
substantive
clover
##umble
##uin
##hiko
dementia
plurality
continuum
##ʌ
integral
lsu
rude
prevention
arteries
bleed
spoken
thug
iss
kite
mohammad
codes
toronto
##anza
##mium
denmark
fritz
trousers
##tility
[unused461]
comprehensive
eng
muzzle
bracket
directors
billie
hammond
reprinted
##lou
eric
going
kinase
mare
declines
practitioners
ku
##⁹
funding
283
pillars
regulated
creeks
cpu
rat
characterized
[unused603]
##hawks
certification
##gent
fl
[unused44]
tamara
virtues
risked
angus
##founded
airing
[unused275]
adobe
bakery
flagship
escorting
##ckey
loyalty
wherever
sg
##tens
##sei
zhu
gruff
[unused483]
layton
2010
publication
accomplishment
##olf
expulsion
change
##trip
elevation
firearm
##khov
262
##dl
##rock
pinning
reversed
tents
##lass
[unused887]
chun
weapon
sutherland
ones
reworked
artificial
dh
martyr
promo
rhone
twice
flinch
cultural
peaceful
convenient
relaxing
titanic
chloride
brent
latch
[unused796]
emeritus
fiona
brain
peach
[unused119]
fired
ـ
incline
mala
##tip
ideally
redhead
##nous
leicester
queensland
analysts
##agne
appliances
##bread
openings
holiday
simulcast
mouthed
##actic
acceleration
ninja
##₃
gwen
configured
punished
briefly
##oat
##band
pac
##ail
hilarious
##his
50
madeline
##ressed
fellow
italics
##ntation
mountains
##د
ked
1884
fat
ol
whitney
##gina
##meter
onward
server
somehow
1937
##sius
fielder
religion
kiss
##wen
academy
unwilling
##oder
partial
##istic
bhp
prisons
preparations
[unused721]
shah
playback
julien
assumption
weakened
sides
##།
##bound
##bbs
circumstance
mill
stretch
brewing
rios
branch
##rland
マ
homo
dump
intermittent
##ə
blink
##rrick
adelaide
misses
tortricidae
arrondissement
barge
canon
denver
##nus
asean
freestyle
mum
##35
maclean
[unused194]
403
##ssee
crowded
[unused123]
noticing
imprisoned
charted
plastic
##∘
shimmering
blossom
either
##ψ
besides
oral
tesla
converting
hamish
yves
openly
shay
chandler
##ngo
midway
##ooping
[unused160]
botanic
leary
##feld
beers
potassium
residue
loses
##ove
vinci
constituencies
mansion
##∪
prostitution
cornice
patient
which
carrier
sleeve
subdivided
3000
tunnel
##zi
lyricist
##ᄉ
tornadoes
##otide
##α
encourage
##¦
docking
[unused691]
prairie
##icular
waistband
psychedelic
josiah
##eries
fright
##新
ambush
ski
longtime
[unused547]
journalists
##riation
##長
ᅵ
##jean
##corp
contribution
fledgling
kramer
astoria
needed
constitution
pouring
##₀
brave
caroline
metropolis
marxist
unharmed
deliberate
snout
boxer
richter
warring
##tag
[unused75]
##liche
∇
shrub
stillness
yang
asylum
everton
practically
tucked
太
民
transforming
[unused90]
turnover
german
##ნ
grabbing
1708
##aceous
timor
m2
fuller
hairs
ticked
alt
cheerleading
singing
α
burying
stemmed
ida
##sdale
imperfect
vito
[unused727]
nailed
ministry
##ज
baptiste
gi
bullet
ক
cache
##chia
boosted
trenton
##ay
arrest
##’
comparisons
soothing
steps
precipitation
##sca
fis
##optera
unemployment
threatening
balcony
assessments
peninsular
klan
holstein
ideas
##nds
1805
conserved
poles
wasted
irregular
notwithstanding
sevilla
boiled
premature
pascal
picture
##vu
charleston
orion
knight
maha
我
##zo
ligament
1635
chimney
istanbul
##ァ
##tors
genetics
[unused756]
belly
mk
₂
dunkirk
scandal
portsmouth
cebu
species
gordon
lifetime
toad
mas
emily
hanged
cyclist
advocate
snail
gothenburg
stained
##chester
##xide
benefited
existed
yan
##hs
ensure
cadence
hesitate
##zzi
defendant
##oping
accomplish
overly
ike
things
williamson
wellington
liver
##ized
outpost
felix
sprung
sisters
##otic
duets
950
—
##caster
prominent
municipal
attendant
codex
gen
suggested
hungary
operatic
mantra
guardian
##tosis
alley
arya
inflation
nouvelle
phrase
resort
ץ
[unused909]
neurological
militants
curve
tequila
##♥
307
chelsea
felicity
knee
##torium
##agger
sealed
hee
quakers
spaced
transitional
##izan
##cute
##version
diagram
earned
##ː
timber
trailed
andy
##λ
1912
intention
asbestos
railways
sous
regimes
aquino
##erre
revisited
choke
martial
[unused66]
input
##ist
beliefs
##wash
envoy
##tour
##կ
334
reddish
thwarted
vocalists
feels
alvarez
pioneered
##25
males
flynn
drake
neumann
exploits
nano
validity
∩
share
##pheus
1877
charges
##kus
skier
##ts
wear
も
##monium
##ran
[unused204]
airfields
cassandra
lauderdale
laughs
aids
sidewalk
snooker
brooklyn
st
##cta
##nent
jean
vita
ˤ
motives
##blood
##lvis
vamps
skimmed
moines
metabolic
lewis
premio
331
basil
tombs
entities
tempered
##bots
##ope
colonization
courtship
disrupted
armour
hogan
[unused551]
leopold
summoned
grandfather
switzerland
asthma
##39
impression
node
sterile
trombone
transmitting
##pc
##sar
cuts
attendants
decorations
last
biochemistry
##♠
zombies
##dha
efficiency
timing
towel
offer
mit
##bus
compilations
baba
radios
##ulf
arden
seal
casablanca
worlds
smashing
frequencies
supplied
cyclone
##name
##lake
woke
threshold
lunch
ry
slowly
mansfield
##tropical
electro
indira
russia
whitman
mysterious
strong
##encia
##cards
##zzy
baroness
erich
export
clouds
47th
##tha
##dre
[unused309]
arabs
cobb
competitions
navigable
hugely
subunit
honour
bridges
reaching
ezra
hierarchical
indoor
##post
understood
##run
wishing
classics
##turn
elevations
december
macedonian
ranges
[unused289]
hurdle
professionals
fusiliers
nap
routinely
pathogen
wadi
exception
resisting
product
5000
nearby
sail
月
drought
explore
lanes
clarity
atrium
malaysia
universe
##rca
ginger
ken
directing
##eld
relocated
choreography
cancer
expresses
atmospheric
##ɐ
dieter
leach
lords
##inking
respectable
19
mage
##makers
machine
philanthropist
mix
coventry
towers
##立
distracted
adored
##や
nearing
buster
##walk
glared
fucked
nikolai
カ
thank
##omy
unspoken
17
eating
mcgill
argues
peng
deadline
everest
engineer
influences
kendra
[unused856]
pastry
deportivo
charms
recess
sarcastic
smoothed
##train
##nary
[unused604]
rouen
sms
ᄎ
1953
##llary
##pg
galician
jewellery
merchandise
sense
pedersen
##mania
twain
##aru
街
fabian
##kia
batman
##ร
canonical
poke
stressed
concluding
sandra
##ator
amulet
safari
successively
tin
[unused833]
hardware
rip
##minster
mystical
lurched
pilots
daily
urgency
pawn
confessed
protest
stems
wherein
貴
texts
aegean
34th
limo
foo
##iti
cheated
opener
turk
mccann
antics
[unused561]
##ded
sweater
kidd
reunite
attributes
havre
pound
famine
beth
nik
commuted
##ally
jerseys
accolades
intersecting
obeyed
registry
##nts
dropped
doubles
panthers
commendation
##chment
helix
vinegar
sub
ivo
##berman
[unused442]
coined
rhea
piazza
independence
derive
##hering
उ
##ja
495
dev
[unused701]
##acing
positions
pavilion
capt
contest
colors
amendment
publicly
38th
televised
43
間
##mark
bulls
sheltered
brentford
##bina
noble
##nad
5
##beau
##dron
balkan
soprano
##♭
software
uniformly
##陳
##wart
clarified
swung
cooperate
expeditionary
engagements
printing
[unused634]
honor
shelby
anterior
semitic
ף
##ilation
[unused531]
embassy
2006
debut
whitehead
##mpt
1600
rio
humanities
lana
spent
intercontinental
crippled
sulfur
ך
mimi
##rth
funky
##rons
traps
##ente
scottish
186
entertainer
##евич
##bry
[unused610]
300
stronger
padua
murders
##cend
##道
##inates
browser
##efined
の
[unused504]
enemies
assent
synthesized
tactics
ceasefire
##ια
storyline
##haus
470
spins
##西
titan
funnel
upheld
պ
meets
dress
fraternity
straighten
##dos
cantor
ha
1798
applies
holdings
murray
ounce
styles
##ש
meteor
upgrades
prevalence
sucker
shelf
virtually
mormon
swap
papal
##vy
274
cozy
screened
##ffer
usa
kneeling
pablo
##ava
[unused885]
##●
koreans
rift
earnings
whisky
##with
murdering
crest
sulawesi
marcelo
exchanged
lack
quote
kyoto
communal
##iography
vox
[unused28]
drawers
detachment
lucivar
[unused903]
1817
counted
exclusively
##lius
lublin
##till
decorate
thankfully
##া
le
footballer
vampires
mateo
disbanded
guitarist
protector
carey
nw
independents
reluctantly
dinosaur
enemy
ensuing
ap
quarterfinals
legislators
ocean
pmid
##mina
##cycle
rosy
capita
settler
opened
telescope
whore
flipped
eton
canals
clock
commodities
pleading
oleg
grouping
##woman
arsenic
##ley
cellular
lookout
1838
restroom
vanity
hiking
distributor
aluminium
bobby
transmissions
jules
##boy
[unused441]
punching
##ratic
rica
demons
eye
finals
1984
##,
hunter
signature
get
michaels
chuckled
##ix
eliminating
loudly
prematurely
rodney
adriatic
marcia
下
harvested
synthesis
corporate
##χ
grandpa
constellation
##tr
management
tamil
##omic
anderson
harshly
fashioned
anson
scrolling
##ricted
nico
sin
##dick
claude
unfortunate
##gly
endeavour
campo
hypnotic
111
jam
buffer
fulfilled
remembrance
319
151
differential
##cular
cinder
##eded
ashford
pardon
1896
tko
coin
audio
become
ts
##lized
scoring
documented
##gnan
regrets
southbound
gladly
##ound
planned
ா
##ways
amiga
fly
seminars
sinking
dances
network
contrasted
canal
movies
josie
obama
ins
detective
expert
testament
troy
passive
rejected
sore
##nburg
dusty
preliminary
##opped
##nger
sued
skirts
##rked
1724
ltd
sodium
unison
zulu
feud
labrador
boundaries
grasped
เ
discover
petition
221
compressor
exclaimed
tow
distortion
##⋅
##ᆷ
##kins
considered
applicable
fascism
ghz
irish
##gara
jakarta
smells
kimberly
prevent
pat
extremely
crane
dr
##rey
childish
iihf
duly
manifest
133
butter
[unused675]
[unused618]
##ク
gaston
##idia
basketball
spruce
corbett
tito
##est
grandchildren
sponsoring
drilling
hauling
##ila
##mise
57
devi
[unused11]
premiere
return
speedy
broadcasters
241
grin
##ase
crack
jian
selma
450
##j
pic
panting
[unused633]
##entation
sox
##used
bypass
##ously
lia
目
expense
##oth
medicine
bosses
shortly
endless
professional
enigma
##bey
instinct
##bial
208
##24
elsewhere
っ
npr
##rana
install
touchdown
filters
standardization
##真
[unused802]
##may
tavern
taxon
stalking
warns
qing
david
##ake
##gu
ceded
chant
kissed
paralyzed
regulate
lacrosse
smirk
tam
referencing
##犬
hubbard
##due
司
219
ks
fists
potion
oslo
##idal
apartment
[unused735]
##会
[unused184]
faith
gregg
spokesperson
bain
marries
brock
rumbling
pereira
ッ
##ק
galen
merge
reservoir
sacred
leroy
bumps
venezuela
sensation
implies
narrative
##52
گ
music
##dya
##rma
motivation
fide
saxony
##ses
##works
johnstone
technician
br
geometridae
pool
baroque
ahmedabad
combined
info
population
monastic
[unused454]
sabre
overcome
divers
1922
abundant
lodged
powerplant
pudding
##レ
astronauts
##vio
##ttal
philippine
beijing
johanna
icao
[unused229]
rocket
fictional
specialty
[unused328]
aqua
loyalists
replay
吉
narrows
partner
##cino
##rath
##trix
inevitable
comeback
fangs
‘
amongst
##⇒
##bola
italians
diane
expedition
nix
integrate
iceland
##ᅧ
bonds
##col
##rier
平
salvage
##dier
omitted
pines
##∈
wolverine
catalog
##holm
roger
[unused322]
dispatch
meadows
##yad
literary
murderers
plastics
fellowships
##省
hr
##birds
silva
booming
rigid
rounds
repeal
able
tuned
##ens
coldly
onset
gunners
simone
offspring
ﬁ
gloss
armstrong
[unused763]
bonding
william
##ী
speaks
prospective
wellness
abu
investing
tale
pitching
井
mutual
oct
onboard
reporters
[unused166]
burgundy
patricia
motors
solved
traveling
rave
[unused224]
##hue
sheath
gentleman
232
ц
residing
##feit
##cier
asphalt
##bang
##ze
chop
limit
1st
2018
##kali
199
argued
##§
criticizing
mustafa
realities
avila
clemens
##フ
liner
va
fjord
##oso
##nam
vomiting
footage
pier
wembley
sitcom
##ign
hobby
[unused614]
addressed
finland
bea
gs
interviewed
philippines
schubert
frantically
[unused881]
engulfed
forbes
ahmad
##nae
glider
##中
[unused632]
breed
capitalist
[unused628]
depleted
describes
northeast
##面
gossip
printer
presbyterian
majestic
cup
retention
twelfth
##rut
##over
clicked
[unused62]
surrendered
！
##cu
nautical
jeremiah
##uto
hank
grady
restoration
have
oddly
admits
recognition
conan
aboriginal
turin
##iferous
device
wilder
afro
rightful
neighbourhoods
gp
317
doubling
carnegie
assistance
correct
las
across
mr
耳
offering
transformed
##6th
##mart
##typical
[unused636]
bazaar
ツ
八
6th
bodyguards
neil
iron
polls
deposited
marcos
scream
aroused
deny
##nant
century
cy
sixth
proper
[unused49]
slam
puddle
engravings
##icz
greatest
incapable
defensive
inflammatory
tomas
headmaster
upper
√
1955
##stead
pueblo
##systems
##ela
197
abruptly
##kaya
northwards
justices
grains
deaths
bland
optics
protect
sheen
##emi
vale
tune
1825
scent
mei
dictated
they
978
hebrew
harrisburg
jacobs
tile
authentication
tribunal
##turing
##gal
pig
[unused921]
ghent
##beat
##₄
kicks
##hill
123
95
269
barrie
##lone
##rta
trolls
diffusion
precedent
##め
##hh
##tura
polled
rao
⁸
package
##hell
##pe
[unused535]
adjusting
brandt
running
steiner
stranger
ъ
republic
succession
exercising
roster
dialogues
superliga
objections
##cre
melodies
##ව
calls
stan
mv
femme
blasting
sloppy
cautiously
higher
debris
piracy
[unused269]
muhammad
signals
preacher
eyes
ridden
aberdeen
plug
orchid
furrowed
talents
postmaster
disapproval
glaring
leaping
tyler
viewers
〜
processor
##ructured
breaking
mammoth
birds
surviving
##nst
scenes
scholarship
[unused576]
terminal
references
ritter
reilly
[unused939]
receives
moral
##տ
chip
armenian
decisive
volkswagen
watson
handler
risky
athens
##face
gases
##alis
gora
indifference
susceptible
火
lumber
rested
staying
##inho
fibre
shown
entrepreneur
520
demonstrating
hamlet
255
neoclassical
celebrities
played
rumours
pubs
##lver
rodriguez
sy
ふ
grove
successfully
lissa
ˡ
parole
correspond
prostitutes
##ے
alias
prophet
howe
judith
[unused514]
lorenzo
miller
neighboring
vilnius
cory
wentworth
administratively
lake
##口
[unused893]
amor
understanding
и
##oes
tigers
112
price
##plicity
strictly
floral
darlington
called
confusion
thrilling
##llah
playfully
chopped
stirring
teenagers
?
traditions
meng
eisenhower
verb
sheep
strangled
cobra
excitedly
govt
amassed
motioned
thrilled
coach
oriental
false
adapted
fresco
glanced
sprawling
shear
##hay
##rn
##rdon
configuration
namibia
graduate
‐
nmi
bern
yells
hui
calcium
##ault
torpedoes
x
furniture
##kos
281
sterling
teacher
component
peaks
defense
tapped
google
##riding
foul
##own
waterfalls
rodents
##yi
substitution
fearing
##cated
interchange
2021
season
##an
##ssion
veteran
##am
gilded
stool
sandwich
ousted
prevented
[unused530]
thriller
##uted
communist
plainly
b1
rhyme
##32
##ᅳ
belongs
##thi
headlining
originated
relies
reward
tasmanian
noir
developments
ग
designer
##laus
berkeley
sas
collectors
banana
enforce
sensitivity
effortlessly
rochelle
##ogist
##alia
stones
shopping
denton
##orf
fk
mainline
constituent
crossroads
inhuman
##mount
obviously
och
locate
privatization
##≥
schneider
upward
ferrari
waist
sylvie
belong
##dell
##հ
shocks
championed
truncated
archaeologist
morality
atom
##tched
amp
valves
boxers
brightest
accounting
aperture
efforts
inner
believers
prentice
productive
proceedings
seasonal
realizing
infinitely
##ов
junctions
scaling
misty
weaponry
yokohama
##cking
adventurous
carlson
catches
cope
developmental
flowed
being
##ece
alexis
plates
2001
capture
77
partridge
pyramid
engages
##wide
##xes
[unused420]
ice
##heim
glove
tilt
transformers
##esthesia
winfield
dry
ᵢ
site
venue
luxury
[unused372]
jade
##xt
pulled
##iam
medina
waivers
numbers
910
##gative
pulsed
dome
squealed
fitzgerald
rear
##roi
anchor
wildly
stumbled
spontaneously
deities
daniel
##ractive
tribune
croatia
incoming
capped
[unused858]
##dhar
##ezer
nt
[unused607]
benefit
##udge
wolves
slender
maya
##hane
woman
misery
streetcar
sufi
dai
spain
stuck
##nted
##ᄂ
eine
spacecraft
exited
guineas
##pon
₱
contractual
utilizing
##五
closes
র
softness
##itude
##rar
dea
##igan
renamed
exists
[unused38]
subterranean
##cco
calgary
saliva
ʂ
[unused176]
fuselage
quoting
##leg
constituents
enacted
vile
custody
garbage
hooked
commanded
diverse
financed
£100
sing
textbook
1689
operates
upstream
angeles
answers
competitor
meadow
xml
flats
##bolt
##tious
epilogue
trial
##making
groves
##firmed
investigation
##ups
meantime
pull
1932
residues
harrington
devin
robot
adopted
##uro
overwhelmed
flu
##roids
##ku
feelings
banking
azerbaijani
deals
stil
##cht
oppression
##itive
astronaut
inland
matilda
nagoya
modeling
##bi
resembled
##arm
nightstand
az
bequeathed
twinkle
##uno
[unused620]
noah
snowfall
iucn
twin
##←
[unused351]
stocks
raaf
crowley
phillips
yamamoto
round
##ffe
trophies
fragments
##ddled
##gos
##kal
carpathian
##vinsky
marta
york
##ively
battle
drag
internacional
harvesting
favourites
shoots
##lova
hm
malawi
labour
methyl
telugu
##isches
##udeau
abusive
libyan
[unused497]
philip
##aia
situated
studios
##ute
transactions
extend
unpublished
語
jed
babylonian
ensures
[unused459]
flare
snake
spider
versa
abducted
dub
gratitude
[unused219]
##sam
evident
س
absurd
interception
uncredited
lowering
vanuatu
seller
meredith
##ulton
##inge
28
gathering
##rily
physical
quicker
judaism
salman
o
oxygen
micah
merged
poem
worry
[unused211]
advocating
156
secrets
dynamic
perez
semifinal
villain
1905
criterion
perception
##kin
mansions
##kulam
quartermaster
stephane
##צ
juliet
mitsubishi
##wer
stratford
##nate
##stown
blackburn
[unused512]
chi
##lets
latvia
northumberland
radius
herr
226
salvador
##isan
battled
euro
tabloid
म
##tate
inside
utah
[unused499]
staffordshire
navajo
##arty
genetically
##uate
sketches
650
settlements
negligence
lew
ideology
visibility
latter
cop
ashland
tensed
reader
ancestry
accommodations
afford
sb
##hak
##れ
dioxide
##race
castillo
dunes
##sso
sonora
advantage
activation
drivers
nature
rushes
monkey
pilgrims
froze
stance
##ato
unless
viper
frown
mixer
[unused666]
freshman
##ike
alright
austrians
both
##比
kindly
refused
wing
iata
##put
victorious
strauss
feeder
virgin
[unused377]
groom
[unused186]
[unused495]
p
行
showcase
haste
##foil
shaw
bricks
galerie
penang
usl
chorus
prc
archival
jewels
unnamed
ussr
dodgers
radiated
worsened
金
buckinghamshire
293
##ₒ
##amen
##up
[unused72]
owner
hemisphere
lawsuit
cites
creatures
conical
tallest
swelled
##oux
[unused510]
##beck
##rricular
1990
##ᄃ
delivering
resign
[unused911]
seoul
[unused900]
##good
##tos
jumps
##abi
visible
##atz
mans
intellectual
##cas
bent
##¾
##…
##pore
##riam
imagining
payload
##ʷ
rd
reminded
paso
ollie
pink
sarawak
newfound
##urai
##cine
##sk
successors
##ℓ
##ow
271
calculated
cascade
minnesota
wallace
1086
arrives
invade
1850s
devastating
ں
##rrado
##ono
approval
##uming
assignments
##onis
ottomans
ordering
repeating
stuff
mt
typing
##gging
1956
astros
barbed
donors
hall
##cton
[unused120]
laurel
##rcus
circular
column
obesity
qi
uc
tel
button
winds
credentials
images
autobiography
flew
homestead
fading
monaco
##ore
[unused831]
luck
reduced
greenville
1625
antenna
##isms
faerie
[unused558]
fred
demonstrated
・
feel
united
visual
reuters
##မ
epic
##hner
hector
ʒ
1652
styx
disconnected
##guchi
##—
guitar
theatrical
##龸
anand
jennings
infrastructure
bow
##md
salad
##ก
88
[unused318]
bracing
oceanic
batting
olympus
##arding
##nail
blaming
evidenced
glover
fascination
widened
christophe
gaping
casey
oldest
##hot
broker
bulging
spencer
##マ
##chel
##ffen
height
fleeting
coupled
segunda
major
lac
sachs
1865
goods
daddy
marker
marriott
dignity
##ma
р
currently
##uit
alongside
##ular
lan
sumner
franks
[unused248]
lenses
cas
lilith
t
further
omnibus
##thesis
late
##κ
##uca
##kh
peaking
lamb
poznan
wrecked
##元
nos
producers
⇄
variously
bounded
compute
confluence
hindu
##asurable
sorry
##hr
##pan
warm
##wing
affectionately
stump
[unused594]
vfl
dimensions
uzbekistan
##fer
ruled
publisher
quarters
##mot
aiden
yen
recreation
dorsey
uncommon
cfa
spectroscopy
hodge
##ich
confirming
determination
コ
##武
[unused386]
collaborators
prefer
un
##rted
immature
q
##eira
190
345
pot
159
318
brewster
comedic
effectively
unaware
rupert
[unused58]
geometry
##ducted
20
##amy
tehsil
becoming
educating
insurgents
lordship
presses
care
find
accumulated
##cous
jacket
spectrum
border
ludwig
##gnon
exposed
faulty
##aldi
smacked
##ett
zion
curator
performing
quietly
socialism
cute
labelled
dropping
manifestation
nod
scout
loosen
arlington
audition
join
堂
zenith
₇
##stle
##phila
43rd
##are
using
[unused548]
##چ
ג
angelina
stephan
isil
escorts
enslaved
##graphic
##bla
leash
lists
zhejiang
fitzpatrick
newfoundland
alexandre
negotiated
detectors
statistical
##auer
hostages
##nat
implicit
er
blooded
battles
illustrious
indicating
receipts
##giving
##ue
gravely
##ב
band
county
ravi
[unused875]
eggs
locus
rented
wesleyan
erased
purely
##jon
##rated
awkwardly
##tt
[unused782]
##uc
enlightenment
##愛
midi
##osphere
rulers
##ɾ
##美
204
intentional
vomit
lionel
rumbled
visitors
parent
unpopular
版
scotia
sentenced
##tment
[unused161]
zip
##⁺
cheer
[unused624]
171
cerebral
moscow
##her
developers
clifford
russ
priests
townsend
received
likes
##rte
##cast
##om
##pies
##tangled
compensated
flame
[unused748]
sinister
##naut
revue
ˢ
char
dire
rhine
plus
courthouse
payroll
proceeds
viewpoint
##atory
cbn
ᄋ
dj
renowned
dwellers
[unused643]
##usa
blast
2003
scrapped
sliced
equals
bram
coven
[unused627]
flee
screenplay
significant
##foot
levin
sparkling
respiratory
acted
strange
evicted
assaults
carlos
weekdays
##washed
54
mississippi
##lto
appearing
##onic
##®
bedrooms
verlag
sabah
##bib
eyeing
islander
##type
winkler
por
野
battleship
[unused571]
glamour
dane
rams
denoted
[unused789]
textiles
320
semantic
dice
##ogenic
jae
[unused84]
[unused379]
transmitter
campaign
158
[unused105]
υ
##о
unlocked
meters
unesco
pillows
##ড
jiang
##e
dispatched
sabine
aurora
submarines
57th
##pone
edo
stu
colored
秋
abandonment
##ர
←
adjustable
##hel
pal
eaten
touches
hansen
##eral
##gp
liking
circle
nemesis
1723
passes
commercially
ufo
paramilitary
adults
##uttered
neighbor
removal
##tray
colder
approached
guadalajara
opposing
fighters
##60
peaked
subsidiaries
rifle
##ments
crept
demos
fi
kapoor
joker
regain
##asco
##ndon
merrill
poisonous
ignacio
twitching
rejects
reassigned
cloudy
inquired
scratches
anthology
[unused12]
demo
stamford
norris
[unused584]
epidemic
##ᵘ
parameter
##elles
suddenly
magical
matrices
consonant
participate
lure
φ
colossal
##itung
lucan
bang
jp
linked
salzburg
ndp
##lers
centralized
、
testified
##mates
sustainability
id
mal
fallen
manipulated
brood
substantial
reindeer
##eria
##irs
haunted
jesuit
[unused799]
scots
survives
ratification
##cens
extinct
strands
collin
jerome
quran
shareholders
##dim
##isson
newcastle
italianate
terminals
of
##♯
brandy
excited
southland
gamer
##内
##tia
[unused923]
decreases
joke
brick
clark
owned
dana
##也
##ld
mere
commando
hovering
81
but
dewey
«
弘
ranged
辶
1400
disposal
farm
granting
kick
suspicious
fluent
loaded
embracing
kobayashi
avenge
allen
newly
handkerchief
succeeded
##cars
designs
sailor
animated
##城
penetrate
##nen
maintains
identification
##chev
moe
easier
##rret
##ي
176
##uchi
stairwell
skating
remain
carefully
fried
fortification
##rok
bjp
leagues
##hic
slaves
©
justified
gran
theorist
erik
1780
hampson
##gible
shots
##yu
logical
determines
superhero
airlift
responsive
elements
marty
stacked
eroded
wales
anglo
closest
witnessing
flat
73
clever
##joy
lucie
##風
approximation
##є
clinical
microscopy
prefecture
[unused791]
harmonies
anywhere
impressions
naia
clip
sanctuary
energy
wheeled
宿
binary
password
·
##hang
menacing
any
solemn
⁶
accessory
##waite
##ivation
cheating
##ial
committed
##jk
1728
worn
interiors
##sty
needs
live
generals
sociology
railing
compelled
appointed
mandates
resource
##二
attic
shamrock
destiny
##ller
##tary
##μ
etudes
154
sheng
underworld
##eis
100th
[unused882]
turtle
follower
millions
criticised
wynn
##ม
watch
##gree
analytic
[unused270]
defenders
##zhou
##պ
diego
goofy
risks
ས
ₜ
lurking
educate
nottingham
anniversary
closing
loser
statistics
##vine
tottenham
worrying
##arney
addicted
##lor
crow
forgiven
##zumi
##イ
haunting
milk
dow
##ype
##yam
##iko
jia
miles
broken
mhz
persia
##itic
gong
nutrient
##tock
ₘ
housing
assess
¾
premises
rudd
saturated
precision
kuala
massacre
starter
shropshire
transportation
kitten
##estra
vogel
reaches
ye
altitudes
riddle
battista
##fat
lucian
tortured
navigator
##iva
##xia
friar
arbor
furious
referendum
trader
##ws
macro
ل
foe
nuns
peek
baker
dracula
##ota
##pw
cages
shared
atlantis
blessed
cremated
contradictory
teeth
##roving
と
honorary
curate
backstroke
halifax
505
##lin
laboratory
unconstitutional
##nc
scheme
[unused865]
##佐
champ
lava
51
gaddafi
wolff
celebrated
discus
trainers
##etic
##ի
hamburg
reynolds
masculine
vamp
ɫ
##some
descended
exterior
ʌ
trolley
gameplay
hannibal
restraint
demeanor
event
lim
snapped
portraying
untouched
hoped
##ching
freeway
canadiens
assuming
normally
lawn
##ala
##ilia
showing
pendulum
tiny
sharon
dryly
did
faced
congresses
sylvester
shandong
tay
##promising
weir
գ
chaplin
launch
upon
eurovision
peacekeeping
french
gillespie
rotten
##vitt
wires
pigeons
不
travels
ville
safety
##lian
finley
abbott
##eka
arrivals
bartlett
##ʂ
decca
playful
mechanism
milano
report
leak
##cos
sinclair
1750
puppy
complained
shower
terms
energetic
rivalry
##uo
empires
drifting
～
teaser
resultant
vibrant
[unused987]
teatro
nigel
##laid
##rce
crushing
titans
choice
surprisingly
destructive
##shot
##ctors
bombardier
rankings
也
brass
tapping
subtropical
bot
parliamentary
rotherham
##ali
equipment
alternative
casper
robert
iec
sermon
ᅮ
↦
strength
[unused488]
з
thorne
intercept
[unused383]
simeon
##agawa
gaps
consulted
lever
beg
gambling
1690
depict
expectations
##•
promising
བ
心
armory
demands
funny
luke
warehouses
restrictions
illegally
##lmer
chuckle
celebrating
##osh
inhibition
renal
gutierrez
downed
##hir
huey
recreational
wounded
hid
cuba
1612
now
ripping
ghost
page
harald
[unused296]
[unused577]
##loe
hopeless
tensions
wendy
##aga
heritage
nests
inherited
##ety
##inn
moderately
##ppet
maurice
policing
sigismund
[unused684]
250
spun
johannes
use
carvings
defiance
asia
ant
maori
collectively
supplement
taps
episcopal
translation
clit
45
disability
[unused668]
б
pitch
moshe
##oning
communicate
mig
[unused671]
ass
transylvania
placed
1869
shaped
objectives
1808
montenegrin
canopy
[unused795]
beaming
simulation
##rford
bellamy
faltered
##vity
##watch
regeneration
accumulate
875
gall
ionic
old
quaker
casts
selector
##zal
howling
buccaneers
guide
##ふ
concurrently
addiction
##cano
aces
##ik
vote
highly
ว
strive
earning
##iki
##巿
egg
marilyn
noon
buzzed
pseudonym
processors
chilean
outlets
tent
coloured
malik
deployed
poison
saharan
crises
buddy
##bbies
##ք
[unused937]
174
paramount
##:
remixes
primal
brutally
##tara
advising
##oran
##ud
jax
draper
considerable
taipei
ɕ
distinctions
nagasaki
##itated
[unused588]
##御
##zai
transmit
stubborn
ornaments
sleeves
hound
fcc
hospice
aqueduct
claiming
capturing
##tish
premier
full
unionist
pounding
pods
trap
implied
popularized
bastion
anya
ignores
dune
locomotive
lane
baptised
million
##wed
##lous
mcdonald
physics
##enity
##ƒ
brushes
naacp
uncomfortably
awarding
[unused195]
##aver
fished
arid
averages
##vre
suzuki
[unused177]
bengals
##bek
stemming
incentives
parishes
fishing
isbn
swamps
##igh
pushed
lingering
wilbur
hides
##im
gestured
bucks
expo
delegates
131
cambrian
kerr
dipped
porsche
problems
thicker
labourers
corresponds
stab
ranking
tags
drown
nectar
cadiz
korea
optimistic
summons
pilasters
grounded
urges
##貝
[unused775]
##uan
##ɣ
doctorate
attempt
ð
##ene
additional
mosaic
360
floating
recaptured
ᴬ
adventist
##a
bog
substituted
ordination
statement
##umb
montevideo
##otto
without
recurring
##zio
promotion
reprised
shock
disorders
dona
bordering
utilities
sell
ji
string
##cker
##straße
jorge
perform
worldwide
apr
[unused982]
401
strasbourg
lid
[unused981]
levy
bathroom
pedestal
sums
monks
##du
harris
##ˣ
visions
violin
##lard
hydro
archdiocese
castile
isis
georgie
edited
incense
##lby
vodka
##phone
1779
selections
##gles
granite
eighty
##nar
callum
rappers
##ums
outspoken
##rice
herrera
yunnan
skinny
vacuum
consul
##ices
[unused302]
encompassed
procedures
##zin
##出
gabled
musical
430
measuring
northbound
##ை
backing
polk
dealers
olivier
ponytail
duff
##izer
festival
semi
bjorn
tata
alcohol
tremor
uniting
wolverhampton
¿
infants
jammu
##nosis
rev
fest
sv
lucius
pv
brought
1879
restart
kong
##kot
depot
##ɑ
coordinate
huff
##pura
argus
flora
nathaniel
tailor
edwin
##ctable
pious
[unused792]
trailers
elijah
could
ᅩ
prices
overture
shells
2008
##པ
delilah
robust
counterpart
##ll
##thed
313
larry
salford
teachers
moves
##rri
donetsk
##sat
unrest
wings
chavez
ps
growled
225
1998
stunning
corners
spells
albert
keenan
dumped
gabriel
astronomers
delivers
wrestling
authorization
bravery
gareth
trauma
##coat
batter
chases
##aina
##ary
155
amateur
আ
security
worked
正
##nched
manny
shortest
lagos
mountainous
diva
grandson
byu
##tom
turret
[unused979]
stony
##eley
luisa
reviewed
greeted
proportion
exile
##ations
sniffed
versatile
[unused853]
##キ
extraordinary
borneo
⁻
hull
cognitive
‑
##ρ
dartmouth
solomon
mcmillan
mind
##rize
department
nodded
bert
##з
philosopher
##氵
ashamed
mobile
intersects
բ
##el
faction
##berry
[unused18]
hannah
##ace
insulting
weed
##fb
##cent
burgess
bumper
railroads
nino
tongue
roberto
##ism
grace
tray
rang
convey
[unused699]
##sser
completion
interpreter
prolific
whorls
threaded
cecilia
whistled
##ᅦ
00
scientists
##off
[unused8]
sullivan
rooster
rival
occupied
##rization
truck
blues
osman
kendrick
##ais
upwards
ར
##mmy
##₂
##tell
foyer
##lkirk
frog
kristina
cleaner
##pose
introduces
style
unsure
tackle
wit
bugs
mature
235
macy
##ब
##boot
bourbon
##var
##আ
children
##mmon
cone
certified
cubs
crusaders
##amina
1722
ia
hard
##lization
bill
rpg
circulated
bolivia
##yama
frenzy
##gga
##ward
jacqueline
trail
[unused222]
##ount
21
urged
cds
android
sins
fifties
universal
heidelberg
beat
##icles
stars
reaper
smoothly
yoga
coronation
fling
##llis
ferocious
letter
##lr
level
840
brightly
parenting
stimulating
چ
coiled
dormitory
architecture
##onga
msc
##rigue
[CLS]
tone
ᵍ
resident
ebook
managing
’
bubba
##ɕ
geraldine
packed
jalan
##tub
）
commitments
contract
pietro
manhattan
seniors
##phi
##ᅯ
roche
##sive
finishes
##ario
guests
hostility
whitehall
##phile
nail
##土
expects
melt
##tila
comprehension
tutor
##37
##holders
##puram
diesel
impatience
sato
vivo
masses
graphs
humphrey
জ
inspirational
invented
featured
indoors
henrietta
repetitive
suspects
happy
uruguay
##haya
rendition
horns
safe
manitoba
arizona
##oped
1835
composer
showtime
antiques
nephew
figuring
[unused380]
slave
congress
uncanny
##hwa
collapsed
php
diverted
documentary
expecting
periodical
fork
jen
literacy
shuffle
charge
[unused969]
collector
##ami
rumble
shapes
##zar
yeast
pulling
verses
fuzzy
tyres
gel
bingo
brute
grateful
homework
you
##100
##ography
##タ
niche
wow
arrays
probing
space
198
花
cave
euros
b
##ق
edinburgh
##belt
novice
asserted
thorough
z
¦
missiles
naga
posthumously
megan
¡
alternatively
necks
russo
##chio
grant
manuel
2000
airport
##‰
##д
jefferson
sioux
azure
poor
lough
merger
signal
cents
312
injunction
##gm
noses
##fm
gills
##fort
ad
loaf
choi
psychic
yugoslav
accompany
farmer
•
archeological
himself
johns
##@
crisis
headlights
putnam
researcher
##њ
influenced
ο
norm
##don
donations
##leen
bromley
or
##ence
course
##idad
landings
signs
theology
[unused433]
##ct
##lowe
registered
punk
strait
dragoons
congenital
herbs
harsh
bulk
taxpayers
accepts
program
##lion
ʾ
workers
factual
1927
foxes
##gno
maize
kai
##rise
[unused473]
##heater
vice
##yk
mavericks
##meister
crystals
##oria
dwarfs
jedi
kgb
spends
##rsa
viking
sweets
twelve
iced
reaction
##neas
frame
connected
cockpit
release
develops
marguerite
zhao
[unused557]
naturally
ostensibly
[unused568]
##vita
sakura
patriot
utrecht
invalid
中
##ag
406
ochreous
sh
translated
1919
godfather
judgment
blade
chew
tightly
ᴵ
backup
carries
##sden
##ظ
karin
780
##jan
expertise
[unused793]
##政
specifies
huntington
##月
[unused114]
##cat
supporters
catastrophe
gatherings
##hurst
inactivated
##pse
##bt
##tl
dream
sociological
ultraviolet
##ters
bladder
finn
speech
metric
ট
marquess
hampstead
prequel
angry
elders
organising
nicolas
[unused97]
yuri
implementing
runways
sun
defective
bbc
israel
momentary
14
##say
mmm
superiors
confined
1819
criteria
sherman
commissioner
##writing
152
kicking
investigating
preventing
##ulation
ひ
##ete
pills
##ro
bohemian
##1
anglia
earls
##uli
draining
dangling
generated
##ouring
civilizations
marsh
allah
1682
##ose
##ttering
##ville
routing
schizophrenia
##illon
1773
[unused527]
effort
##rcle
##tel
magnetic
##boys
federation
domains
##posed
interact
meet
[unused836]
##tracted
advantages
भ
彳
##nob
sardinia
chased
##א
cessna
lennox
張
##nier
bursting
restrained
460
want
1907
italian
waterfront
compensation
ruler
ლ
activated
chewed
pursuit
generators
rebellious
factory
originals
gibson
icon
insisting
##ी
specialising
##centric
methodist
≥
screens
##made
esteem
viaduct
[unused697]
thesis
##ا
##smith
civilization
dictatorship
gasping
##asi
automobiles
[unused34]
offence
wilton
mellon
aviation
[unused261]
jain
toilets
##‡
military
##ume
carl
whipping
randy
rita
##strom
##－
[unused936]
##more
##ע
afterward
aston
uttar
consuming
##ང
seduce
##zard
##ific
trailer
travel
frustration
##owa
berkshire
fiber
##×
##tenberg
beaten
jake
juris
fries
lovely
nantes
nominal
infiltrate
kraft
##⁷
188
cushions
##liffe
宗
feature
pageant
146
plato
advisers
conductors
themselves
voter
shoreline
discretion
fairbanks
lisa
930
heron
##rada
##bn
predecessor
khalid
gripping
35
[unused902]
rack
96
triggers
accordion
[unused226]
blocking
psychological
vedic
##icia
203
blunt
##hee
incumbent
##gating
##jia
companion
nominate
fountains
priced
##ings
enforcing
introduce
orchestra
indicates
trumpet
##ং
browns
swallows
bitter
##meric
molina
ɪ
44th
[unused106]
arabian
bases
beau
variation
##max
1809
##em
astronomical
https
marijuana
##note
concrete
##東
samba
infection
timeless
見
palma
bio
bangladesh
venice
destroy
##pipe
##ocks
taught
sophisticated
audit
[unused201]
##tok
tubes
sorts
usual
punta
1891
1978
determining
ozone
##hem
[unused652]
##lent
identical
taluka
164
prophecy
fitch
scarborough
blouse
marquette
mca
plausible
basal
swedish
corp
##ier
starring
estonian
settlement
jock
sympathy
cass
christoph
taxonomic
amount
56
1857
shoulder
waits
melted
henri
社
##nac
mayoral
humiliated
knoxville
##bush
squeeze
remington
finished
reasoning
sweetheart
##cter
enzymes
presidential
treatise
harold
jaguars
endorsement
organism
occupying
assigns
easy
usage
nasal
##っ
drawings
cara
giggled
42nd
groaned
##inda
titanium
##iance
waterfall
##cased
mannheim
piloted
baffled
professors
queens
##ₚ
matching
football
deprivation
dedicated
##ه
meditation
€
burkina
##lad
papa
xi
allowing
ang
cyrillic
monterey
manage
stalked
simultaneous
kaye
snaps
##nda
ʸ
commended
discharge
##ught
41
aquitaine
guadalupe
##rti
##pins
forum
♯
##han
##ige
hay
##ps
##学
absorbing
purchase
abrams
##士
chan
conversation
exhibited
##uddin
hostage
lucrative
labeling
nadu
songwriters
dashed
##tine
##し
cue
torn
ruin
lao
shrine
™
slid
variability
vacant
repeatedly
leaves
rent
develop
performer
iranian
hollow
hopping
enter
interactions
outing
lucky
maybe
##buck
companies
##ffy
streets
stretches
fu
clashed
##lund
##gny
ramos
sho
heading
##cuit
##erry
eater
lecture
stealing
train
recognize
suspend
##ს
##mana
##rval
miner
externally
mule
linguist
у
neutron
vowels
⊂
##lli
gymnasium
zimmerman
##rington
unease
##enko
đ
daniels
ceramic
crushed
crumbling
havilland
##folia
##ucher
bathrooms
protecting
dreams
leans
rebirth
pauline
starvation
##→
pu
[unused549]
detroit
domestically
##nden
sight
[unused617]
france
shadows
approaching
vera
horror
cannes
##aid
patent
sought
golden
husband
buying
recent
incompatible
##orne
##vik
bruins
ranks
sensing
data
##ₑ
##ভ
[unused657]
ibrahim
sustained
rust
irritating
gladys
textual
branched
ro
commented
omaha
##rrigan
steep
psychiatric
analytical
crashes
roe
##dam
##pis
##wg
##բ
##pi
hardship
planetary
##գ
cameroon
hong
leased
schumacher
certificates
##vres
arroyo
[unused56]
crossbow
sauce
seriously
composure
zach
nsa
ル
trunk
shifter
vo
analogy
organizers
girl
smithsonian
##lves
requirements
124
custer
##zek
achieve
peculiar
##hale
195
defaulted
chinese
firm
thom
muriel
embroidery
[unused910]
bays
suzy
large
tina
mirror
pressing
teach
defunct
breaker
##ographic
##ள
howl
heart
motionless
baldwin
zeppelin
stigma
colorado
##oked
fixing
##hoe
ᵃ
coop
smashwords
##eller
fishes
##berger
treasures
he
proceed
1732
##85
grass
munitions
corridors
enrolled
guiding
##ita
[unused350]
pena
reportedly
ultra
nominees
midnight
##lifting
##venting
bois
hidden
crocodile
sigh
##а
approach
alberta
tempting
##arte
northamptonshire
和
jersey
flames
interactive
aligned
entertainment
visit
abnormal
president
artisans
eighteenth
prism
car
mathew
δ
particularly
[unused63]
##bbly
trajectory
zipper
ر
simpler
arenas
check
chance
##tro
typhoon
herbert
sacrifice
bedroom
moments
dame
##ς
ₙ
loving
##ʻi
automation
pump
empathy
romans
##bourg
alfonso
shrimp
woodrow
maintaining
darwin
unknown
doesn
wi
##nding
flexibility
122
[unused448]
church
dreaming
distinguished
##ˢ
[unused556]
headline
television
##ssen
205
[unused15]
moan
muttered
though
seat
confederacy
kilkenny
##mist
wills
##pers
##rued
166
courtroom
leap
insert
##ardo
unfit
pitcher
##azi
enjoyed
nearly
replication
groans
sadler
sergeant
wallet
beings
wildlife
courageous
tools
aristotle
docks
newborn
স
timetable
##ganj
yelling
blamed
faust
parking
replaced
silly
五
thinks
##sume
born
yourself
corsica
dino
[unused436]
analyst
bitterness
screening
weigh
1603
scholarly
signed
regression
ய
₊
probable
ernest
##cie
サ
##nath
clinton
deutsche
fund
structured
##oro
her
1683
##ₗ
vanilla
##zong
deputy
land
cables
vapor
judgments
##sitor
ʀ
attacking
great
franciscan
pistons
refinery
hasty
batch
lie
microscope
recovery
departing
jacksonville
sighing
##rew
daphne
packing
snyder
les
discs
eurasian
[unused817]
##eau
forty
heal
murphy
stands
##sef
##ler
##.
##bridge
dal
presidents
##g
resignation
instant
zane
##ᄊ
blowing
emission
##culus
annie
distraught
tighten
be
christmas
sentence
midwest
precursor
fern
hose
canyon
weighs
nicely
##tama
mediterranean
##bags
##sas
##コ
malta
washing
##nut
disrepair
1935
oblast
sloan
mounds
tissues
##yat
mesa
qualifier
specials
э
##'
##в
740
bedrock
massive
##llin
sandstone
benches
##long
##quent
user
controlled
bradshaw
charcoal
rolling
258
environments
punt
seen
##エ
caesar
cool
世
paragraph
bid
exceptional
mahmoud
crash
turkish
##dini
##utnant
sylvia
##chison
22
laptop
controllers
clubs
trevor
heavens
sesame
notre
otter
##holz
housemates
##press
closer
renaming
excavations
soluble
39
connecticut
quarterback
御
##national
د
penetration
川
welterweight
##ャ
distressed
##tonic
cans
lark
centres
fission
##uba
retrospective
##inian
cub
psychiatrist
ringo
##י
tease
vassal
##mma
sikh
##ま
光
ь
disposed
analyses
charlie
##γ
nawab
##dham
##φ
borg
barber
anti
[unused159]
lancashire
lost
promote
#
parasites
occupational
##vah
greyish
出
overturned
nasty
claudio
olson
sexuality
vincenzo
shrink
bulletin
ign
voltage
octave
[unused80]
sheila
absently
iii
deformation
beam
audiences
impulse
digital
bypassed
[unused505]
sponsored
土
uruguayan
dallas
dispute
1604
sanders
mandy
710
chilled
bewildered
##year
prescription
anatomy
atari
basalt
operational
pitchfork
hardcore
##nic
fletcher
cycles
##ani
accident
macintosh
##kong
previous
th
##antly
tweed
blindly
##iating
much
##udence
straightforward
ᄇ
castles
debra
colonial
±
andover
cocky
illusions
[unused559]
ownership
##tty
ik
##57
literature
halted
##houses
nicholson
enhancing
仁
##ј
copyright
renault
##社
spartak
flour
basel
amc
challenging
diary
molecules
pastures
[unused813]
[unused867]
charming
peterson
##lun
##aries
green
bankers
[unused411]
nadia
outlined
keynes
opinion
##uid
##er
##張
##chemist
1840s
enrique
inflammation
ultimate
##mad
eddy
notorious
jordan
[unused611]
##orno
atheist
##氏
gov
spirit
harvard
rwanda
wrapped
proponents
oxfordshire
penetrated
value
greece
hussain
##sr
handwriting
lad
dock
explode
menace
caracas
intervene
dirty
canned
stacy
can
enabled
middlesex
bolton
goodwill
horace
regime
##oons
420
gunmen
recruitment
cora
indifferent
turkey
lumpur
donation
amused
##hal
chuck
barley
त
sanitation
belarus
##gler
imam
¥
##下
playground
chips
##dent
non
##inen
##mbled
monsoon
tammy
bran
bremen
dirk
surfaces
hat
radically
australia
husky
##vc
espn
[unused706]
parachute
1959
rods
xiao
paperback
fees
##bahn
##estinal
##lty
ich
san
trojan
straps
wished
multinational
careful
pistols
##harat
rustling
goose
ag
##craft
wally
り
romantic
##ivity
concussion
dates
inline
##fide
cdc
nuevo
sacks
ballard
contractors
subsistence
awe
##ises
peptide
অ
1775
ghetto
improper
戸
capabilities
ignored
##imeters
[unused359]
##vious
rhode
ھ
##llum
352
arthur
dollars
relates
apron
streaming
breached
suck
##ffie
opposite
heap
libretto
descends
humanitarian
industry
secretary
curran
names
ul
approved
trees
adviser
surround
cleaned
huntsville
skeletal
surname
appeared
attracts
##far
aunt
illustrator
appears
##tte
1774
##oue
feat
dayton
iq
prosperous
wooded
mock
##sy
emmanuel
dragging
##cision
continually
promotions
displays
barr
##walker
smoking
##ة
colliery
evie
##เ
fooled
violations
magdalena
theta
bis
arthritis
job
sundays
a2
boulder
mapped
nickelodeon
hua
##its
1709
ankle
stale
accepting
steals
insides
countdown
ₐ
hayes
enclosure
spans
afterlife
pokemon
concerto
shields
##bau
financial
rae
vanished
ז
dissipated
##rate
pages
cannot
director
mattress
##uru
##lez
messed
duluth
##fields
salts
[unused919]
choose
valor
1988
grayson
gamma
wavelength
undisclosed
##bers
##tics
draught
turnpike
emphasize
##mith
racers
mediated
sara
»
302
homme
##tou
caspian
expressed
accomplishments
blinds
topping
##lga
jane
##cross
including
presenter
##virus
##rter
kumar
madhya
cooked
crops
bin
greater
tbilisi
dylan
##phonic
massey
killer
fulbright
##ge
engaged
gideon
cinematic
raven
theory
inlet
flicker
grenade
ho
##yria
consensus
##lf
centred
commission
silesian
##火
forge
aiming
##∩
##llon
##mir
##wig
[unused524]
[unused837]
barrington
centimeters
dismounted
faber
leverage
produce
delta
decide
profile
##ager
stage
##tori
vickers
semifinals
contributes
trend
raja
##elman
##₆
kata
exceeded
249
##itzer
transferred
official
ottoman
pod
summer
fashion
leighton
downing
##nni
##lda
continents
ivanov
1628
counting
didn
pet
usher
266
gables
##ʔ
##wari
##al
theatres
sited
condensed
jobs
##rl
##ت
1758
banners
flowers
lahore
cigar
uefa
india
griffith
dunn
techno
objection
centenary
cuban
##ₜ
scorer
buffy
fugitive
##ators
##mg
displacement
##64
keep
ortega
tyre
holmes
compartments
window
leave
[unused752]
devices
blacks
betsy
comune
indiana
subgenus
comprises
##rys
authentic
everett
shivered
ugly
##ods
raider
frightening
culminating
premiership
genus
##minating
puzzles
[unused374]
emptiness
♦
##ache
[unused760]
##რ
##ect
persisted
##iso
fury
detachments
[unused871]
bringing
trillion
pour
doctor
ill
organisations
collapses
folds
eyelids
championship
churches
lei
disrupt
whimpered
253
treat
robbers
inclusive
malaga
pointe
alzheimer
smallpox
ع
significance
horrific
aspiring
2500
barracks
serene
mainz
position
treatments
insistence
spikes
normandy
[unused20]
emanuel
##ante
##litz
blackberry
rocked
##国
##rose
mc
##ana
[unused417]
inclination
possesses
##”
##rup
locals
spreads
danced
trembled
strand
fundamental
undergraduate
genera
nicaragua
[unused24]
suspension
reducing
continues
detect
##outs
muttering
vintage
releasing
1985
07
reno
creation
quarries
[unused87]
translate
##ive
##و
##placed
##ils
747
decree
outline
claws
topped
pope
exported
##bria
variable
whimper
##sport
tack
consolidate
sighted
staunch
dangerous
##gren
##kai
abrupt
##ib
##sti
age
activate
shipyard
traverse
ュ
##uppe
aba
family
histoire
neared
257
rusty
##у
blinked
steered
##ensburg
adultery
parry
東
joint
locality
fossils
substrate
##τ
electrification
[unused313]
lulu
syndication
casually
attraction
bodo
##rip
chants
cost
hooper
thursday
whereas
wimbledon
cinematographer
diseases
circuits
##sl
email
##breaker
##pped
fumble
after
##iri
##ice
ि
documenting
₀
translit
dale
##w
administrator
location
##keepers
observation
creep
plaid
##rne
##ares
parcel
downward
##ட
1999
van
graham
silence
##inal
iroquois
play
postwar
bouts
backlash
dose
sadness
gable
crowned
brett
apostles
goodbye
osborne
stress
entourage
publish
progression
ex
microscopic
vanessa
##lein
law
##z
gulf
metis
disco
seem
romani
328
##eer
unsuccessful
ᅪ
##ף
grave
##wice
parallels
inhaled
editions
##ythe
##sic
shorter
simplified
[unused376]
[unused891]
##uez
##nesian
irregularities
х
brands
##ᄎ
pond
baha
♣
kali
կ
amended
preseason
1679
fe
##tively
julius
##san
netting
vents
zionist
intimidation
##ied
##pressed
tributary
nhl
wears
judges
##ru
press
あ
obligation
ammunition
[unused929]
##eurs
applicants
rt
##cles
investigators
shit
##eaux
##carbon
##icing
partition
kerry
tide
uncle
2010s
breakthrough
measures
obscured
tribute
jens
move
caring
##pid
werner
##⽥
arrive
mughal
sequential
maturity
panic
ceremonial
cowan
ecological
hardy
carriage
montenegro
eventual
[unused306]
／
##hor
listeners
##ading
##smo
clone
1605
apprentice
[unused873]
geometric
freak
beforehand
serves
protein
compounds
##kala
respecting
essential
stores
##ctus
nebraska
##gger
temples
adapt
pregnant
##erine
carrie
liberal
צ
holm
central
##亻
家
idle
commandos
hottest
feminine
physically
filipino
coat
##tto
lazarus
[unused130]
##vb
film
mumbai
##lak
##mous
aziz
questioning
selangor
##therapy
craved
resurgence
##fu
##hair
colleges
nouveau
genesis
ノ
capacities
runway
rollins
shrug
##nology
physicist
loyola
##hammer
chimed
declaring
liberties
logs
glaciers
whom
bolshevik
##one
exactly
pee
##ecin
##ution
ads
glided
plane
baton
mojo
##odes
road
##lish
vichy
faculty
disclose
gee
range
subscribers
induce
amplifiers
wilderness
##lica
kurdistan
pius
migrate
digest
gains
europeans
##dm
west
µ
playoffs
##enburg
publicity
mega
[unused895]
penalties
purdue
##pass
workshop
##gua
orbit
impress
##¼
relinquished
##tream
educators
christi
et
stories
reinforcement
##ended
album
praising
[unused765]
polish
##iman
##stock
modular
necessitated
##sov
保
mendez
shooting
chapels
expectation
bella
clinics
sparked
cracks
derivatives
paste
someplace
510
proctor
lehman
alderman
embarked
tighter
appreciation
partnerships
revolver
villains
##ision
import
##vas
l
ya
burrows
punjab
analyzing
##↔
neill
prompted
metaphor
prakash
encoded
[unused167]
bathed
##media
##ual
##ization
education
piano
##eum
slamming
synth
1996
##iculate
preston
##dled
passions
reissued
siegel
printers
catalytic
adapting
filmed
turrets
consent
developer
1705
withdrawn
石
economically
vanguard
##dust
##ische
##notes
##／
embarrassed
422
hash
beatty
coco
layer
apartments
manufactures
cree
weighing
##by
ム
idiots
##ini
##平
bulldogs
explain
famed
##scu
ld
outputs
conversely
rubbing
reconciled
dei
##nated
heavy
kawasaki
iraqi
musa
mood
##ন
douglas
conserve
react
spine
##vant
anchorage
##आ
newmarket
ᅯ
⁰
##dale
campus
conscious
##lal
competes
##ders
turkmenistan
casimir
convinced
rail
fool
meiji
broadcasting
cheese
refuses
antennae
##elled
sounding
tajikistan
[unused9]
brooding
ripley
prompt
##omi
gregorian
candace
shoe
canvas
rider
sparsely
##efe
facilitating
sprang
##ivision
ظ
415
raf
undeveloped
##″
odi
syracuse
winery
seventy
²
kidney
shake
##bilities
##atic
[unused404]
##zawa
slavery
funeral
items
reviewers
alien
##za
##ӏ
75th
piles
severe
heterosexual
juveniles
##kney
although
practicing
surrender
##↓
cochran
##rane
felt
mute
modeled
pseudo
speak
##า
worship
″
[unused819]
gigs
fused
nuclear
reza
memorabilia
ろ
##tive
##ulia
backgrounds
charters
##₊
lansing
ᆫ
muslim
hysteria
traits
##mori
michigan
therapy
embrace
concentrations
expect
##sms
##ར
defend
崎
bomber
wink
conceived
trade
##dles
triggering
メ
wheel
##ת
conditions
dark
elmer
evolving
musik
special
hurt
modifications
##free
sainte
brightened
خ
1942
couple
indochina
reign
##hoot
people
debated
norma
cantata
[unused21]
bucket
##hyllum
##hari
[unused688]
antibodies
cheshire
##uls
##ir
downstream
##essed
268
consecration
beaver
sync
wave
pagoda
folk
dealing
[unused884]
masjid
##ʒ
introduced
##ξ
##≤
oscar
dentist
oneself
##rned
1837
##mail
arias
fuji
side
##り
1692
aired
gradual
frustrated
∂
phones
##´
##ologists
rapid
##frid
maids
puebla
abolition
arcs
raymond
entrepreneurs
initiatives
internal
manufacturer
witnessed
criticized
##ople
come
spirited
##slow
immortals
##pad
##sf
shudder
thud
finale
attendance
disciplined
yarmouth
blessing
romanized
stalled
prelude
councillor
havana
presence
benefits
eminent
reigning
अ
caliph
practice
praises
##fahan
1820s
nicknamed
serpent
##pd
apologetic
cookie
dolores
void
darkness
quo
contributors
pulpit
designated
smart
arranger
chimneys
practised
ultimatum
##ου
pedro
##mund
scans
##work
cecil
hostilities
##η
aw
nj
milestone
640
invited
osborn
instances
equipped
##nsen
classroom
license
toe
merits
clarence
##ashi
chefs
guilt
ك
য
artists
migratory
problem
your
bergman
particles
broncos
yanking
coordinates
bait
疒
employee
arrogant
di
fox
miss
[unused809]
cornelius
opponent
[unused986]
grandmother
burnley
##ctions
##psis
muscles
decisions
##rell
3rd
crater
##ipe
hospital
unfinished
pupils
plaque
note
priestess
camp
orphan
auction
steamship
##oda
ohio
domestic
anime
[unused907]
immortality
cypress
garlic
1666
herb
gross
hear
##男
licence
##xton
continuously
elderly
makers
gazed
[unused273]
beauty
facilitated
tournaments
##nig
meta
commentaries
inventory
symphony
##ilde
[unused613]
conducting
lair
damien
fiercely
##umi
bp
chevrolet
rebranded
##¨
##thorpe
submerged
ptolemy
ش
encompassing
wakefield
buffalo
rosary
##age
##ナ
[unused324]
[unused906]
back
კ
316
flickered
backbone
aerodrome
##gam
activity
violation
insult
lizards
honey
abd
##ticus
goldsmith
254
temperance
##る
1644
##opus
185
colony
competition
homosexuality
##yte
dramatically
starboard
##ᄑ
[unused244]
cyclic
##ckle
##nation
commotion
[unused334]
symbols
soup
##ting
##thes
teamed
curated
punishment
sensors
hague
judd
kayla
says
sighed
dancer
injury
##ක
barre
fairies
actress
domingo
create
##tung
##せ
bonded
##þ
fatal
loch
liv
fortunate
legendary
##roll
218
##ミ
##us
guinea
##ₐ
70
laden
##ping
complexion
armenians
##dication
leopard
graffiti
##so
##分
invertebrates
described
sally
resolutions
##hora
strode
hardness
mo
nervously
barn
don
tail
[unused511]
pole
heaved
##phs
tears
engineered
criticisms
93
salmon
อ
〈
radial
##than
peas
£2
bessie
feet
toured
bullshit
caribbean
lo
tudor
mighty
balls
injection
oakland
spelling
macleod
enclosed
urge
brisbane
nationally
examine
madden
instead
ferrara
muddy
##86
decidedly
deity
##rating
bayou
coloration
fivb
ste
business
adolescent
##tera
##oto
##dio
##redo
guggenheim
denied
petitions
##sen
##gy
42
bali
[unused198]
downloadable
investments
tricked
פ
marx
consultant
language
bat
##hire
hewitt
##ggle
icons
imply
lineup
taunting
unlimited
preserved
toward
cinematography
ward
##cating
widening
beetles
methods
##đ
disturbing
rene
prologue
revelation
reconstructed
##wyn
##osaurus
setup
buds
permanently
stand
overcoming
れ
casinos
aspen
campaigning
[unused507]
cutter
ambassadors
arose
1823
features
##boats
1977
benevolent
carlo
440
dye
[unused645]
invariant
duc
refugees
striped
citrus
happen
sprint
basement
gunfire
dodged
lightweight
contention
##bular
factions
lengths
roam
tyrone
[unused983]
proof
[unused529]
mastery
arabic
bash
madeleine
robinson
loves
1986
##und
cb
stern
artifacts
aggressive
malmo
intentions
squadron
wetlands
bolts
electorate
[unused646]
##bach
##edly
about
graduated
elevator
160
formation
animation
sha
wraps
straightened
traders
ɾ
plantations
[unused314]
blood
flinched
sofa
nielsen
georgian
estrada
ioc
photos
blasted
surfing
##nx
driving
circles
psychiatry
faso
##pas
medalist
panda
somethin
##chfield
dorothy
[unused732]
retrieve
filtering
##語
carnival
##gol
effect
masonry
theoretical
tyson
seventh
##加
stating
##growth
thayer
catching
vigor
friday
pigeon
cunningham
lal
arches
##ison
##ray
mvp
##ulsion
nursing
[unused398]
##司
##gated
abandoned
broughton
[unused94]
##cs
narrowly
consumer
opium
[unused949]
##dine
haul
##ung
sunglasses
stray
60
##འ
##hana
2a
volumes
bum
க
##lke
joked
hike
sibling
史
ı
graeme
vicious
##⇌
draws
ivory
philosophers
stationed
stolen
urging
gorge
akbar
nerves
successive
人
cooler
courtney
comparative
phd
hydraulic
##tablished
plank
plenty
specification
maryland
三
ip
angelica
##cio
##on
dollar
barbarian
promised
vacated
analyzed
pin
synchronized
1972
dig
geological
georgia
valkyrie
amphibious
descend
discuss
shareholder
well
reopened
##ari
red
sd
remade
recovering
lincolnshire
##vao
pitches
hungarian
roach
election
thirds
bizarre
td
##glia
dyed
catch
feathers
guy
concord
down
octopus
μ
sexually
logan
minute
sherwood
counterattack
tendencies
engineering
anguish
continuity
implements
ை
arctic
brenda
viii
kelly
paddington
##arium
observes
oversaw
minogue
gardening
2009
friendship
tore
vr
manufactured
₉
benito
##ives
##ɫ
litter
[unused928]
ok
regretted
southward
donkey
massage
wants
purity
caves
throw
[unused465]
curls
mommy
[unused689]
diagrams
##oh
##fine
through
##uated
instinctively
##zzled
drills
milky
tonic
##orescence
cheeks
true
jena
##rlin
1969
maddox
several
##metric
publicized
neural
[unused4]
wall
tablet
prop
ᆯ
##pathy
##vili
cent
inhabitants
##rus
peck
slack
##ize
[unused336]
louise
mickey
wagner
differences
mosquito
##rou
bishopric
tt
accepted
gorilla
helicopter
outlet
journals
parks
6
undertook
1726
cpc
##tica
survive
##pac
paper
describing
duchy
preparatory
bilingual
comets
assistant
watering
southeastern
container
##von
forwards
traversed
stir
##ᅢ
caleb
##bu
dart
webster
almighty
enters
##brate
##cho
lured
spitting
##დ
weekend
intently
fairfax
suitcase
北
clans
clutching
##dor
wish
flashing
##nis
hertfordshire
##pta
sentencing
harlan
scarlett
##urgent
hume
##lth
84
##the
winced
##con
##ए
winners
##charged
splitting
[unused761]
helplessly
realises
##nberger
##之
helmut
1746
orthodoxy
piper
##pf
長
##tie
monsieur
flow
byrne
horde
mini
mutually
forces
contrasting
compiler
...
benny
escape
rejoined
fulfilling
quartet
dorian
mohan
seats
davis
widespread
instrumentalist
steamed
kirby
ref
away
acts
loaned
grew
stabilize
##d
contemplated
ravine
anonymous
socialist
##master
weimar
tourist
liquor
seemingly
wwf
communes
amazon
april
surprises
articles
alto
lingered
hampered
##fy
##cus
germans
##yle
##世
recommendation
vancouver
yugoslavia
##table
fantasia
offered
distinction
shelton
ringing
spectra
[unused298]
nixon
achieved
[unused456]
joachim
the
po
1831
##zd
##eu
luigi
cooperation
##nna
redemption
czechoslovak
ravens
iteration
drill
contracts
norfolk
continuation
exclude
solvent
haynes
##tering
subordinate
piece
##ery
organize
forearm
##tzer
forewings
declare
separate
##boat
##そ
consumed
prone
ends
initiative
ignoring
resumed
141
阝
eyed
##™
[unused605]
bunk
scanned
sign
atletico
line
မ
##ffle
##la
##inae
biomedical
foster
##馬
##30
そ
##iya
discussed
logistical
might
##unce
tips
to
mutter
##lman
bark
[unused95]
runner
weren
drains
edition
dong
originates
divided
##ʻ
##tructing
##drich
##₉
reminder
juice
tanaka
joan
townsville
arts
mercenary
underground
tagged
wool
nelson
rubs
claimed
cloak
doc
oak
[unused935]
##hetic
fan
hatch
issn
##port
grooves
bargaining
##icum
##morphic
##shire
documentation
finch
seize
elise
exiled
trans
##rik
citizenship
libertadores
slept
open
augusta
groove
elephant
intent
runes
valet
stared
banker
version
##თ
berwick
winning
intuitive
east
mentally
over
bottom
finally
its
incorrect
welles
drive
cot
regent
sacrificed
emergencies
[unused86]
cyrus
los
##bri
mister
quivering
202
antennas
##ल
lock
disappear
algorithm
##ュ
dogs
elects
breakout
##м
coating
cologne
nerve
ponder
ingrid
##lder
beacon
calculation
##ष
##oshi
gulped
prevalent
##ð
##chner
corridor
sands
pity
##igate
##dler
buff
asshole
1899
cowboys
judas
khyber
leyte
narrowed
oliver
committee
freud
&
rower
surgeon
website
nursery
ミ
erskine
f
##ic
batteries
laundering
##ounded
drones
##bah
accountants
action
dali
tournament
##日
ace
budapest
streams
transports
ই
280
rochester
breath
colt
dwelling
forte
210
affiliated
overdose
uss
ध
main
demographic
match
[unused371]
rainfall
substrates
restructuring
silk
economists
##oides
indefinitely
soaking
statues
##moor
basically
##pr
kidnapping
truce
georges
afterwards
##les
lorraine
bulb
inspecting
subconscious
cargo
##eza
tech
[unused593]
polymers
ヘ
plots
upcoming
gets
otis
##rer
invention
noisy
closed
replacing
baths
[unused256]
[unused91]
sighs
[unused319]
001
products
absolute
mara
[unused553]
pun
##eck
accidental
tres
yeomanry
moi
intrinsic
##nesia
egyptians
banning
hc
000
panels
а
gia
sensations
cameron
sunk
keen
len
marco
geoffrey
harpsichord
clears
swam
李
gene
##16
daytime
grapes
postseason
sharply
instability
tang
estimate
effects
##河
け
centre
marines
[unused508]
mom
tea
reversal
##ffin
elephants
ᅲ
jury
volley
##ikh
andhra
109
ħ
issues
##÷
mated
competence
mongolia
##ener
clashes
manuscripts
tomato
267
storm
waltz
##fleet
organised
jo
fur
##ft
chateau
[unused360]
equation
sly
236
graduating
σ
[unused832]
wealthy
silver
creator
curtains
robertson
wiggled
covered
recognized
vaughn
##uen
impending
ordinance
compton
percival
unification
vanish
[unused384]
orchestral
doses
##lium
##chal
fabio
abilities
##fect
filling
##lese
##nge
##ᄏ
aide
arm
seth
paranormal
9
affordable
wavy
chairs
##arian
forsyth
thus
amplified
gaunt
appointment
begins
1911
##yler
score
irving
addison
##chs
[unused655]
ncaa
obe
stink
##duk
spinal
stadiums
##rwin
norse
ホ
##ן
amnesia
strap
##org
##zko
kilometer
tan
perfectly
yawned
cage
critic
##kou
##ester
medicare
##lge
chao
trip
options
carole
天
demetrius
bartholomew
##ན
christine
medallion
smith
columns
belonged
nk
andre
curved
del
electromagnetic
basis
hardened
1898
nas
consequently
offers
beck
conversations
involuntary
whites
מ
ན
[unused101]
hawthorne
manager
digging
servers
conviction
titled
reddy
stellar
##rling
[unused988]
professor
weak
wiley
amazingly
makeshift
##onal
##ney
miranda
##tical
##tor
amar
##ror
þ
[unused886]
watts
anthony
##வ
##aw
##iot
楊
coal
acute
prodigy
squeak
[unused532]
depressed
irrelevant
observing
patterned
sculptors
efficacy
##is
[unused648]
convicted
##stra
migrant
uber
rarely
dave
##oting
##pled
eligible
freyja
measured
correctly
snails
dish
torah
backseat
rehearsals
1654
chairman
purcell
societe
suited
consideration
##alle
troopers
1860
roofs
home
##ks
relativity
∘
parrot
panted
discourage
joyce
##offs
breuning
dictionary
halftime
##↑
shrewsbury
##unt
boasted
inspired
langley
warped
test
economies
wide
1710
legend
remember
artemis
busy
##night
mystic
month
federally
1928
strikes
##sau
extensions
heinz
compressed
vivian
scoop
way
thong
##horn
exam
##tain
coliseum
graf
azerbaijan
umm
##rogated
referees
photographs
##mon
burroughs
hut
caravan
happiness
jai
unwanted
vision
gay
##finger
##lore
##mament
amend
##que
bowled
chairperson
telenovela
##nsk
##oses
wielding
berg
fuels
bone
pandit
1893
apprehension
bs
organization
mcgregor
twist
270
hurts
protectorate
concentrate
smile
proto
conflicts
mandal
liquidation
motions
botany
hi
tenderly
incorrectly
##ு
[unused464]
liaison
sailing
##xie
bobo
hays
instruments
retaining
##writer
averaged
argent
dissent
thematic
disguised
104
lakeside
##stand
paxton
privacy
places
[unused894]
rosenthal
ى
upright
guides
א
beginnings
leaf
aviator
libby
reach
sorting
##pate
ki
##nio
launches
programmes
champagne
blackout
servicemen
syllable
sensual
condor
##mage
drives
ink
tickets
wound
revolves
absorbed
literally
ewing
##70
fae
hacking
incorporation
literal
composers
##ulate
barony
continued
deutschland
[unused234]
kernel
cylindrical
337
flashed
perpetrators
joey
walden
packaged
##missible
##ि
ʉ
attache
##dner
congressional
fiddle
1714
##uance
tub
##avio
accompanied
##pod
banquet
straining
[unused99]
accumulation
[unused985]
[unused29]
elliott
gupta
communications
##大
available
talent
controller
xl
##pressing
primera
impact
cd
zone
##wehr
##ח
psalms
supervisors
criticism
mongols
came
cracked
25th
combustion
モ
ʻ
gb
intellectuals
photographic
##slin
horrified
##elo
##cene
carolina
##sions
unlawful
ч
四
ironic
##plate
dinosaurs
troubles
trailing
valentine
lantern
appearance
steven
comte
groaning
unions
disgusting
[unused47]
■
abdullah
##ان
airbus
u2
##ろ
grain
mathews
##bill
needy
flanked
##宣
est
boo
correction
fascist
kin
realistic
skiing
##mme
##ump
williams
broom
inmate
kruger
sar
1882
constructed
ao
sadie
uv
day
benin
explodes
natalie
[unused402]
shenzhen
allison
fold
josef
松
##sbury
[unused53]
##ˈ
outta
##hani
##imus
扌
sits
fluctuations
reggie
relocate
scares
##icides
roxy
crete
critically
sheds
##drive
gangster
detectives
stevens
##tized
drop
campaigned
pdf
execute
condom
##ouk
admiral
bearing
##rum
[unused354]
##mata
grouped
curry
backdrop
##ne
vow
##hma
doha
harmless
lest
convent
590
##rd
translating
pomerania
hallway
##die
##～
chat
darryl
##gee
institute
lots
madly
##cide
myths
##mussen
##gni
ejected
producer
##yan
harmonic
##mian
bee
##iate
particular
##agh
regarded
##aur
followed
##yman
rebel
assaulted
throne
depicting
episode
quit
##ی
clamped
livelihood
founded
kincaid
broad
charter
entertain
pill
##ling
brad
refreshing
1744
kenyan
##quist
220
beneficial
wrestlers
juliana
##ᅮ
[unused980]
cruelty
pg
procession
monstrous
ᄊ
##rae
##iction
[unused686]
additionally
ashton
##sta
briggs
palestinian
thoughtfully
pops
##rai
mud
petit
effective
##ym
clerical
vacation
clenched
heiress
dresser
seventeenth
slight
unofficially
landlord
∨
compilation
sousa
avid
tolerated
astonishing
cs
struggling
##venor
##gate
[unused426]
##imo
dawn
hooker
ship
stack
vip
cyril
deck
sea
1712
limited
museo
##gor
艹
genes
shuddering
##№
##な
ezio
shot
peking
duchess
awkward
nbl
smashed
function
##ov
##while
##oys
1861
shifters
##mara
islamabad
##ors
##drick
tire
##hedron
amir
permits
innings
corrugated
whistling
discomfort
gaius
##bon
cadets
glad
liturgical
##hly
elves
prime
##ᵢ
kent
atp
##logical
friction
ellie
panties
##tation
sets
1730
vein
andrei
stockport
albanian
skaters
mania
pockets
psi
##oese
macarthur
##ghton
1923
##∞
myanmar
attackers
ர
##sus
tag
courses
affluent
traditionally
rum
poised
[unused892]
stilled
##hey
##active
sitting
timely
agitation
[unused419]
##ivate
antique
bowie
clients
gazes
barrage
fond
[unused790]
proteins
contend
excuses
killings
##dding
##rco
##atal
nicole
mentioning
assert
##ر
1725
[unused185]
folks
flags
wits
1620
pledged
ড
dil
exhibiting
degraded
unbroken
uniforms
inverness
[unused133]
pair
rq
surf
nellie
vehicles
costa
magic
lacks
glands
indians
cape
##pina
##nessy
##bba
yearbook
4
prix
cheney
corruption
##uman
fined
muscular
heroism
[unused972]
unreliable
m3
instincts
##miento
##keeping
researching
sire
[unused590]
memo
kept
wage
bobbed
stair
owe
dominican
nausea
1987
canary
conferences
murals
vibrations
[unused639]
acquaintances
whether
shield
abdomen
163
polynomial
surgery
ryder
scowl
##hearted
##⅓
yankee
##lyn
topics
boycott
loire
luce
tread
ნ
dried
1970s
##ivism
inadequate
send
unrelated
wessex
##isch
##raphy
interrogation
nape
##ᵖ
width
contrast
seed
kill
##tani
interstate
manchu
##wei
cincinnati
seizure
[unused323]
sean
##sel
webb
ා
exceptionally
##yme
##け
smartphone
autopsy
fluid
##ful
transcribed
[unused181]
##cher
[unused172]
sienna
120
ridge
umbrella
autumn
##ɨ
malacca
libre
##hai
insults
196
clarke
barriers
sacrifices
##★
[unused704]
##空
年
tracked
leasing
administered
tracking
speaker
specify
winner
illustrate
wishes
─
##ワ
hits
[unused863]
escaped
wai
aero
ி
associate
##yard
brushed
collisions
skip
##rvis
justice
vol
bloomfield
dungeon
gps
[unused629]
gunnar
##rase
wouldn
900
faint
top
##kker
expanded
urine
article
silesia
auditor
cambodia
##21
[unused718]
ո
topical
triangles
hasn
click
gus
turks
1881
##shaft
differentiated
novels
207
voss
implement
tour
[unused731]
tatiana
foreigners
##（
figures
stadium
millionaire
renewable
hotel
す
bars
accessories
γ
273
dash
moreno
triggered
toned
ramsey
turned
shriek
finish
as
girlfriends
##nare
nationalism
flex
opens
queen
##mbit
hauled
##65
##ski
##pping
cruisers
##izing
mouthful
##bee
bam
shane
researchers
heights
##ably
##ப
infringement
sparse
inspections
##isto
charity
measure
kam
accounts
263
super
##hone
granny
26
interpretations
ᶠ
outside
##fting
prince
##tained
##ki
allegheny
jolly
cutler
##logist
viruses
pup
reflected
rings
console
mis
close
acacia
prisoner
biotechnology
petersen
##rman
[unused896]
thrive
hurled
zambia
preference
skeptical
##rat
hopped
interned
brewery
disagreement
examined
whaling
##orted
##て
sacramento
##xx
##nting
##xy
golfer
undermine
nickel
viewed
ե
clarissa
03
##viere
jaenelle
##ᵒ
identifiable
jamestown
1618
simi
comparable
unmarked
介
##nko
##ott
##ﬁ
hounds
coloring
minor
maison
##bank
johannesburg
register
##igo
##gic
岡
alleged
invariably
[unused396]
48th
writer
scholastic
eternity
readiness
proportions
##like
[unused13]
doris
##pire
lynx
christy
น
trembling
##ador
2014
ζ
pike
winchester
circled
##cam
##kle
arcade
##itan
##坂
outset
lotus
##rem
martini
brasil
witness
bearer
peugeot
deficit
lloyd
goes
tailed
connects
disturb
138
##ffi
db
dowry
alton
ℓ
noodles
partnered
##lford
noctuidae
urban
cu
##das
anne
defence
puerto
c2
##ɪ
showdown
ᵇ
stanley
##ara
cliff
[unused829]
bas
dail
vicinity
coffin
##mbling
resisted
hunan
reserve
inflicted
##п
invitational
cows
startled
improvements
##ues
##osis
[unused814]
##ே
females
hind
##manship
##co
bart
starved
reapers
napkin
tom
die
jolt
pristine
##sco
hated
sneered
ethnic
estuary
roberts
##ammed
##athing
##icle
couples
derivation
##js
improve
##brush
muir
nassau
##clops
##ⱼ
aden
antigua
necessarily
married
perished
killers
##ooped
am
talking
##ham
##oxide
mergers
deserved
sentiments
##н
taller
fabric
##zell
[unused294]
medium
vance
africans
poetic
icy
carriages
und
##guide
##saka
mocked
perkins
gurney
beverages
indirectly
hormones
greeting
[unused209]
airplanes
legitimacy
occurring
purchases
gives
scanner
specimens
『
sack
##marine
crazed
assassins
characteristics
fastest
##ton
volunteers
armistice
spiral
##rna
crawford
boat
zoom
##rky
##ang
siege
disgust
steal
m²
feasibility
hurrying
premise
seam
snarl
gundam
mixes
spiked
undergone
suppliers
##hiff
##vel
concordia
devotees
iphone
lessons
reciprocal
settle
⊗
meaningless
yao
palestinians
crossover
##ᵥ
lab
arise
89
validation
um
ports
ᄉ
devoted
bsc
warner
otto
investigate
peg
oblique
josh
rebuilt
transfers
##av
dictator
lithium
dug
hire
entity
postdoctoral
vh1
##и
receptions
rus
slalom
invitation
[unused228]
dario
latino
##tten
linda
temps
##around
₤
ferreira
nipples
##lding
cult
pete
photographed
wondered
disturbed
immersed
mecca
clusters
##bility
407
defeating
july
750
##ylus
##サ
名
##ryl
##min
##schen
pit
hitting
martinez
observed
¶
rover
history
ie
##rner
erroneously
jurisprudence
copy
domenico
walk
##rva
##ᶠ
avenues
dar
strata
finishing
[unused741]
##ও
##pired
cancel
securely
cramped
dakota
prizes
faces
cap
unsuccessfully
woolf
residents
beverley
[unused528]
##osition
littered
symbolism
wilmington
##for
countless
dawned
reef
videos
respectful
spots
[unused429]
channel
##lus
rotated
º
##fi
mariano
aircraft
attitude
hornets
kira
excitement
performance
clear
##mics
宣
regards
leaving
ego
##ʃ
kc
##witz
tackled
30th
heartbreak
nobleman
sober
##upt
european
##mons
prestigious
barnard
encompass
cakes
##oit
gesturing
slipped
that
##uation
census
exponential
direct
##শ
##安
##weight
healer
hills
23rd
ported
hotspur
citations
waters
astronomer
##koff
##gas
saskatoon
talmud
abused
burr
drawer
fisted
##hear
##storm
##ment
blur
shouldered
-
seductive
sept
1892
hybrids
sponsors
kia
royalty
disabled
setting
saunders
##phus
[unused478]
cody
prefers
actors
cerambycidae
mutation
compression
michael
calmly
aquarium
hunting
1610
whale
transient
inability
government
paving
financially
##vor
padres
color
belief
torch
bethlehem
toxicity
chiefs
totaling
[unused17]
a1
oyster
⅔
climax
delighted
reverse
polo
##nti
##urities
planning
dismissed
##cock
advent
callahan
luzon
[unused677]
levant
lucy
##©
anytime
defects
map
##adt
##rot
soaked
softly
schwarz
ska
##kota
perceive
repulsed
lexington
patrick
[unused726]
checks
multi
cheat
##nche
litre
landmarks
##ogical
grief
##oned
flopped
one
##ᅴ
夫
derives
##ily
delaware
lawyer
##itch
##je
hundred
shouldn
walkover
[unused993]
##fia
二
radical
morgan
surveillance
shootout
opposes
##gens
singers
perch
##た
amplitude
carriers
notion
mikey
persons
variations
until
please
writings
medici
overtook
asked
##rda
##sight
nz
time
⁴
ground
yellow
shi
westward
manpower
[unused546]
booked
sale
[unused638]
memorials
##sin
fines
##দ
##ian
aria
jesuits
##anies
murderer
##民
turf
##स
##aged
flying
59
participated
munro
1729
frs
1781
有
stream
tender
##dberg
##play
built
editor
tidy
globe
##ging
delle
grinding
##cence
ruby
ₖ
##dgets
coded
chewing
flickering
oldham
examples
nasa
remixed
皇
lucia
##ris
##ъ
honoured
##fles
##四
bb
preserving
pleasing
timed
school
differently
dwight
leader
aggression
tanner
broadcaster
facilitates
fought
neck
sportsman
offender
olympic
##user
siena
rooftop
behalf
bloomington
tong
handicapped
dir
airplane
triassic
biking
##hema
health
bother
interspersed
sword
pinto
dhaka
##mp
fitzroy
##istle
wigan
macbeth
##aker
##rya
##sphere
##vna
scandals
settles
destroyer
skye
abstraction
guys
trust
peering
wingspan
##ium
clayton
buenos
kern
streaked
harcourt
##sper
##eson
##routed
pressures
##ia
##oko
mccain
##etta
primaries
illinois
views
carts
tides
helen
finalists
prayer
angled
##清
whole
hungry
##se
68
passenger
##yt
rectangular
adventures
296
honours
lash
marlins
monty
pure
contains
ordeal
1785
curl
fitted
wheat
selena
##ologies
##lu
featuring
harding
##quest
waterloo
approximately
##hort
biscuits
##kis
underwent
sparkled
acre
##ede
1653
##king
madman
##vating
impairment
controversies
restless
submissions
[unused423]
expose
##tat
skirt
arboretum
##nsky
pendant
furiously
revolution
kathy
##imate
becky
blows
##ised
detected
ensuring
flowing
volga
spaniards
[unused168]
personnel
##nidae
excel
slopes
##lism
##dina
##wo
michelangelo
##ats
し
291
##อ
##rr
cottage
##house
events
66
[unused543]
knocking
coincide
description
augustine
easily
ج
##vier
squares
prevailed
oblivious
cite
[unused479]
##nical
##iness
ideological
##chuk
headquarters
decades
##titles
accord
greenberg
para
##yo
♠
##lc
specialists
hints
##sai
tooth
##香
tattoos
flowering
ruse
##ned
##tions
mgm
count
[unused670]
##wich
pushes
branches
shade
jar
koln
temeraire
wiener
victim
experimenting
carla
canberra
safer
women
advertised
ι
1540
rests
stem
##kir
hilton
blu
##shan
coached
610
sergey
ferns
graz
discrete
paolo
##mes
bud
chicks
has
blew
odd
attorneys
gardner
##cek
emancipation
cp
proportional
silicon
succeeds
[unused625]
budget
390
list
##oy
managers
##忠
ardent
##dak
categories
##olate
triad
cruises
ल
shipments
roles
spot
aubrey
##ingham
material
##vey
[unused492]
workforce
shrill
wreckage
warily
appoint
matthias
##bund
arrows
shawn
##gaon
weightlifting
##morphism
localities
strikeouts
holes
kensington
jaws
doe
kiran
ucla
wonderland
lam
temperate
absence
engines
styled
corpses
churning
fiesta
dispose
##kura
pain
##oms
sweeps
painful
##rney
―
prohibition
yin
families
assume
judiciary
outsider
reeve
scenario
⁄
##eborg
presentations
leaders
taxonomy
feared
holy
saline
##ц
harbor
myrtle
option
elaborate
reefs
mingled
utilizes
winged
tank
##lving
parlor
##yal
[unused292]
##bron
sur
keller
schoolhouse
##chang
exhaustion
[unused682]
contents
reverted
##镇
adversary
chilly
sexual
₹
神
##ule
sliding
parana
immune
354
compensate
pak
porn
stalk
turbulence
##books
nic
remnants
liquid
barely
ren
##lham
jiangsu
expenses
pissed
shankar
stricken
nomadic
##suka
sloping
##র
uncover
zeus
soccer
##sch
leaking
terrific
gunshot
##anger
alarms
entrusted
slaughter
observe
crude
lama
batted
goats
##ibility
[unused703]
fen
##fp
##ies
tome
localized
tnt
functioning
[unused190]
ford
glamorgan
offices
prostate
blackness
riots
were
werewolves
##rb
statutory
copied
subsidiary
stagecoach
barnet
##rral
[unused822]
gentlemen
stalker
zee
swallow
actresses
##kra
fiction
dishes
annual
museum
##tyle
zealand
ops
後
establishing
sofie
##ological
hero
richest
character
agenda
temporarily
obey
princes
trails
steadily
fucking
##fighter
warships
project
coughing
lila
##ᆯ
holders
nurses
frankfurt
bn
lu
respective
taking
rudolph
zoning
travelers
lau
ng
ranch
alfa
##ains
hurried
norton
obsession
##buro
thereafter
‰
echoed
##vered
injuries
orientation
rockets
##nsor
burlington
##lellan
##resh
warmth
lobbied
prospect
jeffrey
##nem
doug
face
[unused469]
splinter
pioneering
##ually
coding
six
opus
##ulated
##ely
winding
root
##ye
compliance
unpleasant
armor
[unused991]
##grate
stadion
prospects
spec
##np
laid
riga
##¡
asset
gladstone
tre
paige
72
advance
economist
tucson
##υ
pick
idf
declined
sink
tad
ה
boil
instructor
decorative
##ovic
jumped
moans
ᄅ
jackson
ecuador
##maker
instance
kiel
tell
cr
employees
bo
##ʑ
[unused540]
bae
perfume
depiction
recognise
oxidation
yiddish
conferred
sleek
parameters
disks
##lch
##gut
heroin
erect
consumption
mayor
phantom
pushing
flashes
hungarians
mw
##yuki
[unused147]
trustees
##ifying
fingered
robotics
[unused278]
hunters
improvised
instrument
1890s
governor
##sia
##yas
capitals
cannabis
shetland
various
razor
area
clinging
referee
##lio
shirt
objected
##hesion
##kari
aristocratic
dublin
performed
supplemental
like
magazines
dyer
vanderbilt
##ean
domed
accountant
[unused536]
completes
love
ہ
##ano
pyrenees
##verse
##shima
dust
flared
sorbonne
##qui
##erated
##tures
##zle
lease
auditorium
##usly
nights
eliot
ana
##park
prize
##ili
targets
dilapidated
garfield
greta
settings
103
##gled
[unused217]
##ino
willoughby
##iring
withdrew
##⺩
casualty
fulfillment
luminous
skipper
[unused82]
bard
##lla
nominated
culturally
detached
re
##hum
gallantry
measurements
self
##lika
★
##mia
##wu
##mpton
disruption
settled
commercials
investigative
klein
logos
##tile
refrigerator
theories
irritated
inhabit
##ogo
future
northern
broadly
seasoned
bruno
alteration
hyper
ruining
fans
shoved
suffering
diner
most
urgently
archibald
arena
revolving
confession
本
##wear
photographer
athenian
daniela
jelly
##iting
##ers
residences
tradition
##hta
marble
##was
working
rouse
##lten
1664
blanchard
statements
35th
affects
##ram
stain
aa
inspector
##chee
populace
simulated
bentley
delgado
wonder
specialized
##hoff
adding
lexi
togo
requiem
##dez
benjamin
generalized
edge
##ance
[unused977]
muscle
roommate
saints
standings
jars
theo
achilles
replied
haze
##rit
carbonate
##dae
receptor
threw
card
kenny
v6
algeria
##pala
##idge
afternoon
cause
runners
painters
ninth
empowered
penelope
methane
strains
代
##ad
gazette
mesopotamia
watford
havoc
mint
reassuring
breast
marked
##hall
berber
addresses
##fly
ape
buddha
bermuda
chapters
wealth
##10
dignitaries
*
growing
qualified
##hur
november
positioning
barbecue
sequencing
efficient
lungs
orioles
##ra
rbis
##ility
fairy
mentoring
statehood
##can
moonlight
pei
canceled
##tism
bastard
##aine
drove
##lam
02
swimmers
##eke
important
knesset
switching
jr
debts
##(
mined
immigrants
spice
graves
##unds
endowed
##cula
architects
yearly
punishments
healing
##nco
martina
crescent
casual
coe
##iol
##shu
nair
herman
70s
wines
judicial
pbs
min
lashed
[unused586]
alligator
##sily
satisfied
[unused940]
carson
universally
cullen
gibraltar
##ctic
werewolf
##olic
##我
1960s
harrison
avenue
bulky
cho
reassure
gotham
cell
salem
29th
##cap
farewell
challenger
153
knots
providence
##mura
rehab
##500
##itha
##vance
prey
refined
organizing
##ס
20s
cafe
rocco
##ᄋ
salle
metropolitan
ɒ
contamination
##urbed
garrett
poole
roll
remembering
distorted
livery
buzz
stakeholders
yue
##bis
[unused679]
disappearing
penned
riley
vessels
contexts
451
sincerity
correctional
militia
filmfare
al
##tsk
americans
peers
bench
unacceptable
heller
##oot
helpless
roc
isa
decimal
[unused271]
el
##侍
serge
##ska
reliability
code
utc
battleships
##eth
я
tacoma
yahoo
verity
த
preached
switched
##ksha
gui
hideout
howie
[unused477]
##|
haggard
insufficient
detention
tunisian
##powered
disciplinary
believe
mph
supervise
##yra
banged
revival
bands
##proof
disguise
purchased
##toy
ceased
soviets
wnba
##nton
[unused602]
ago
##fixed
busiest
capital
slang
nme
story
counterparts
frankenstein
1848
[unused111]
drinks
pitted
salt
citizen
truly
##inia
智
##⁶
parentheses
,
grimaced
sarcasm
##llo
apollo
##ours
bowl
cantonese
circus
orchestras
ot
fuse
##ち
buttons
establishes
portrait
nets
##wc
surfer
tight
prem
leapt
status
##ly
##ii
edmond
titus
instructional
newcomer
islanders
facades
maria
laser
provisions
bordered
brutality
concert
hugo
1983
tommy
distributors
##eche
sooner
colby
xavier
skin
defender
photon
molecule
##kova
tobias
о
commence
napoleonic
108
messages
[unused976]
source
society
nee
logged
##iled
guerrero
destroyers
malicious
hispanic
turnbull
chopra
deluxe
psyche
writ
commander
##rdial
sac
whoever
thirties
transplant
[unused368]
pittsburgh
facing
lifted
##down
##rz
rye
oversight
administer
[unused110]
guessing
scala
##alic
##head
yu
authorities
##bari
[unused933]
este
frantic
reinforced
tuna
baby
breach
星
##‿
montreal
homosexual
treasurer
treasury
##tier
supreme
##bot
antoinette
inward
tries
roosevelt
glistening
fated
tunic
alsace
vowel
##runa
ᅴ
##ries
##etched
earn
##dom
##cky
slovak
flows
milling
speed
captured
blank
rei
##53
[unused946]
fungus
greet
platinum
reeling
hopeful
##weig
cracking
つ
##dity
cipher
dated
nation
villiers
tattoo
##ip
##ggles
varies
##rga
maverick
speculation
folded
act
physicians
η
cycle
##nock
jackets
processes
cmll
##bation
911
sonya
[unused581]
181
directions
dubai
contributing
distribution
presley
259
midland
tightened
duffy
penetrating
easton
ornate
sgt
tributaries
##幸
##kla
conservatives
negotiations
jamaican
greenish
##на
##falls
appropriated
1951
buffet
##い
fled
[unused554]
##wald
arithmetic
huffed
pajamas
frontman
1859
handed
detailing
##ignment
intensive
risk
brow
also
inclined
engaging
ineligible
sal
##ith
variants
ley
1800
evelyn
##hes
symphonic
04
default
##kes
##▪
mari
disk
##lani
##oll
laude
sammy
armchair
##ej
##rton
blending
doin
##ntine
flotilla
##oc
abandoning
meter
bournemouth
standardized
video
opponents
##tham
1777
[unused702]
writers
violinist
auditions
ferris
##pal
blooms
kochi
yields
cobalt
attempting
earthquake
hades
##tone
[unused598]
patriotic
[unused403]
##inus
aachen
beyonce
priesthood
temperature
##uding
flair
consort
kathleen
##standing
##imated
na
inca
sorcerer
carol
noteworthy
##sonic
fisher
milan
electrode
hale
pocket
wanderers
peninsula
publishing
emma
##ort
ی
brazilian
gaa
##ahl
##atin
jolted
##ز
crouched
##uck
brethren
feast
2000s
##ber
islam
centuries
accusations
512
##〜
junk
##ignon
bride
drink
wikipedia
grasslands
jerking
goblin
⁹
marylebone
disasters
stunt
disturbance
pierre
74
##ico
rosen
netball
##iens
##mona
disastrous
advances
##ulating
groundbreaking
valley
depending
relationships
calm
implementations
starting
##tance
moment
postgraduate
1734
nonprofit
reminds
remodeled
rhodesia
mandated
1815
patriarch
contradiction
crazy
##gle
tells
spoiled
climbs
siding
loyalist
momentum
taylor
[unused815]
supposedly
karlsruhe
memories
above
underwater
##meral
1851
cavity
inhibit
awful
deer
manfred
kingston
focusing
henderson
##grass
kickoff
transvaal
savage
seine
1900s
##nius
##ffled
achievement
una
chatting
β
լ
ˣ
saloon
designing
209
python
lt
[unused43]
є
describe
emissions
reused
bassist
infected
[unused945]
##itia
mma
prohibiting
##rsk
lifespan
respects
ryu
firms
wagon
fleets
rudolf
##late
fight
[unused742]
thailand
whispers
##enstein
bishop
supplements
[unused674]
british
independently
interpreted
myriad
tuning
auckland
newcomers
es
##usion
upstairs
dislike
##お
syndicate
franz
university
##dav
blind
porte
mls
outdated
khorasan
branding
cruz
##dur
recital
blanc
ingredient
fifty
focus
floated
intake
rani
inverse
maker
victims
jazz
##dder
keynote
##ivar
specifically
##uz
wrongly
##rmi
tunnels
stanisław
lawful
flash
##ei
physiology
[unused811]
fda
gabon
##ise
gmina
##thest
fierce
maintain
##flict
10th
afl
surveying
alvaro
maine
recipients
toro
[unused48]
[unused564]
booth
disturbances
cynthia
diplomats
solicitor
hires
##abe
regulars
metal
streamlined
willard
controlling
##व
##न
oclc
sane
##文
innocence
streak
##ssed
licking
同
##耳
ロ
ethical
2
27th
customary
flung
mel
battling
occurs
contraction
lore
fuck
benedict
radha
##fusion
##ette
hearing
govern
potsdam
devils
walls
jamaica
windshield
etat
sided
who
##away
dung
pagan
mccartney
invaders
rag
bradley
fact
[unused974]
feeling
##nity
potent
requesting
##lei
engagement
outburst
ø
growl
明
kindergarten
coughed
suppression
zero
##p
bombs
denotes
[unused971]
correlated
moniker
##zan
##hia
clues
##llus
ე
domination
banner
[unused39]
greyhound
##海
slavic
westminster
injected
##lt
trough
glittering
antrim
auditioned
expressing
[unused230]
nick
bottle
verse
##?
easiest
gunnery
##tium
losing
revised
##town
##sul
diet
tertiary
##ango
fascinated
animator
jurisdiction
picnic
narrated
script
manila
ami
bryan
##oed
beasts
types
layers
violence
viet
membrane
##rch
nazareth
aspirations
##khar
##rol
gospels
##lita
puppets
shelves
421
herbal
missionary
harmony
pianos
careless
industrialist
[unused103]
disputed
battery
place
accession
[unused197]
##raya
##ส
commenting
##wan
canteen
stayed
##ga
touchdowns
ontario
classrooms
eels
##coll
spotted
mon
traces
kenton
ª
##dran
force
grupo
standalone
biennale
cannon
turbine
reflection
columbia
##ovo
alabama
suspended
respondents
##che
conqueror
aisles
enzo
tax
92
suspicions
hiroshima
mainland
1640
wiltshire
##gart
colonists
##uh
##tries
prehistoric
retreated
##tic
contracting
stopping
petals
bacterial
attained
##orestation
##rosis
starters
catalogue
nucleus
there
attain
bullying
enduring
##天
##orra
calming
case
carpenter
##bor
ethiopian
##q
legislatures
##lm
accessed
blackish
mendes
namely
siren
interaction
unreleased
jennifer
modernized
whitley
##↦
##omics
susan
ර
giants
keating
##khand
firth
##ower
xiang
itunes
nestor
[unused780]
babe
rain
hence
beech
[unused388]
foam
##ified
21st
1910
figure
##訁
butterflies
jonah
338
ata
malaysian
ბ
radicals
67
fleeing
creditors
albums
slayer
machines
##yang
hart
trivial
coleman
states
##ˤ
cafes
calais
matches
1866
assortment
charles
confirmation
insurrection
outcomes
protege
talon
##evsky
looming
##fk
hampton
##ieg
[unused329]
27
horsemen
republics
poets
##bly
cryptic
militant
##pour
defences
walnut
##ʰ
uncertainty
external
cis
defining
qualities
venetian
cheekbones
assimilation
during
soap
name
interrupted
ᵉ
tended
translator
onto
[unused304]
invasions
lying
converse
e
read
joined
pornographic
suspense
tony
##pathic
enterprises
1655
became
dover
mediation
##yer
commenced
1827
powerhouse
labyrinth
##rard
luciano
discontent
hour
immersion
walsall
casualties
##村
##ত
pisa
##ulio
accompaniment
opposition
variant
niall
jaya
module
դ
jin
managed
court
##lase
barclay
seekers
reorganisation
##古
concourse
1876
294
boom
constantinople
stucco
markers
resented
trams
bon
##hold
##vara
cushion
cc
kate
dutch
veracruz
nightclub
mental
mixing
ड
##tai
jim
fragmented
##vard
generous
##bane
susannah
notebook
1807
resistance
mali
##eto
fitz
ruiz
consisting
quarterly
λ
drums
headache
billions
imprisonment
intact
similarity
##ease
##hesis
##iest
[unused227]
farmhouse
[unused453]
camilla
deceased
mx
##75
[unused690]
##gard
concentration
somali
1813
advancement
edgar
grassland
forster
czech
footed
bailey
reference
conclusions
obligatory
geschichte
sniper
stood
summers
stabilized
##igny
##ots
##uce
##uke
news
pri
##nne
bolivar
氷
violating
seeker
subjective
面
detailed
##45
motorola
信
##rangle
biennial
unaffected
mrs
##☆
announced
bothering
highlighted
sawmill
willingness
retreat
ax
shire
cities
stake
bender
stronghold
swapped
##pool
ambient
##lands
##rized
compiling
submarine
##ishing
[unused220]
outstanding
##bra
bending
##x
plays
##anial
pedal
delaney
ד
ᄆ
zoe
horn
overseen
lightning
informant
novi
assemblies
blackpool
sutton
gamble
beak
calculating
emphasizing
recited
telecommunication
muted
dortmund
weapons
##生
reflex
trois
##net
skinner
tai
ย
assets
jakob
wig
jenny
hodges
jody
multiplication
handling
makes
melodic
ensign
lullaby
banco
tall
duck
##ぬ
galloway
scaled
ი
[unused440]
cheung
nurse
##ina
##uth
gasoline
janet
kamen
programme
horribly
##lana
produced
##jin
orphans
player
fates
archive
monarch
inaccurate
##cks
144
aerodynamic
conner
fills
augustus
evolution
pointing
labels
intercity
∞
yeah
tonnes
##pati
##ack
missions
exact
slippery
sleep
preoccupied
ო
good
mundo
commandant
enterprise
innovations
investigated
motel
retained
grow
rumor
worcestershire
excellent
##dling
1840
projecting
##হ
imposed
unexpected
navy
honda
demonstrations
fiba
crews
prohibited
heraldic
ethan
knife
spies
stupidity
barak
fed
##ays
roderick
tightening
caressed
nana
##gb
newbury
##aan
##hore
##tale
regimental
except
amtrak
zu
stopped
salvatore
##ided
chromosome
paths
guts
mechanically
deserves
reporting
swing
ⱼ
acquainted
loading
##aka
asks
others
า
subcontinent
saxe
1968
mold
oswald
530
##pes
dim
reagan
seduction
silently
relationship
stockton
whig
##pur
rescues
beast
candle
resume
behaviors
rare
##yck
escorted
pads
braced
ceremonies
threatens
deploy
[unused363]
retailer
illustrated
upland
luton
ljubljana
networking
343
greed
loud
town
center
1916
##bag
reykjavik
##eng
lev
doubted
shaved
clare
believed
auto
fei
learns
[unused944]
oilers
ramirez
##ddy
##lassified
28th
forthcoming
swollen
syed
wiped
mayer
shine
hu
laura
##ث
71
##static
bruises
elisa
visiting
135
foundations
uninhabited
yorker
sophie
1634
##nr
##ost
instruction
trying
bahn
viva
arab
savanna
say
recalls
[unused816]
chesterfield
organized
rated
sipped
cringed
sandwiches
volleyball
surprised
facebook
formerly
roller
##dice
##uld
##信
repeats
routes
rental
森
201
cereal
rhys
saying
cranes
bits
deliveries
antarctica
generations
punch
associated
beating
zurich
brake
floats
##do
е
exploded
gymnastics
additions
thou
53
manifesto
[unused918]
##day
英
preface
[unused362]
matters
##dion
experimental
revisions
murder
industries
##haw
##law
auburn
roots
##iad
[unused305]
bunch
identifies
sts
##lib
subsidies
monetary
gaza
ignition
248
moaned
endemic
endowment
tremble
1747
1920
expanding
ep
1802
likely
1934
##logy
misconduct
pioneers
activist
konrad
ancestors
tanker
[unused978]
perhaps
##kian
rectory
wyatt
##stic
handful
mcgee
##雄
##riders
co₂
禾
exempt
§
cabinets
2016
solemnly
improves
plymouth
##croft
street
pastor
excused
##nberg
##་
authenticity
renewed
nm
derived
mercantile
##ie
16
floppy
sabotage
##ur
264
anders
tomb
councils
lauded
garments
bubble
elongated
record
vt
ᵈ
↔
different
pakistani
enactment
paz
pained
greensboro
peoples
##lster
tobago
dipping
gleamed
unnecessary
trapped
wildcats
##clave
311
enzyme
marathon
crap
nouns
rector
jericho
robber
##hog
625
distinctly
solution
##boro
reggae
1713
[unused960]
blurted
kitty
mineral
novgorod
violated
revelations
##factory
##ւ
##um
ʼ
##wee
tv
cramer
mildly
suriname
garment
##nya
1721
toxin
dam
##abas
ominous
bwv
##icated
##egorical
affiliates
doors
rows
apart
##部
##rdy
##：
ligue
[unused31]
prep
[unused961]
nichols
vietnam
gubernatorial
##ր
blazed
gestures
shoulders
clapped
spade
kimball
₈
operators
[unused589]
bonnet
ribbon
increased
enhance
crisp
rama
organizer
##dents
##wara
ears
laurent
universidad
[unused7]
chariot
tried
dual
##board
[unused941]
flourished
curvature
tchaikovsky
##ahu
##anda
##德
cretaceous
friedrich
##shaw
suzanne
unbearable
nyu
culminated
pearce
albanians
negotiate
##ious
toby
##tase
1903
hill
58
brady
mae
229
##otted
monopoly
nordic
##og
meals
raised
scandinavian
ngos
##station
##sund
panicked
subsp
surpassing
controversy
cdp
enable
confidence
##ר
chase
bladed
rails
kwan
sapphire
##rave
##bution
preaching
##ao
socrates
trained
##pace
aimed
##bino
##mi
cruiser
[unused954]
arguing
reactor
sensed
burned
remained
vertex
geographical
drastic
predicted
southampton
nicola
tucker
verbs
detonated
horrible
criminal
coral
harmonica
masovian
##ndo
eastenders
barney
spelled
spherical
##rians
jamal
##ating
##nable
##پ
currents
dog
editorial
honors
jacob
isn
lear
decision
ambition
kinda
##事
sl
weaver
furlongs
blizzard
experience
adjunct
24th
florence
kings
lviv
ud
##nese
hartford
turkic
punish
##games
examines
americana
florian
shapiro
fruits
strategic
dialed
forts
von
sizable
blond
futuristic
##chu
adjacent
1852
06
dysfunction
roberta
sic
song
spanning
estimation
named
productions
terraces
northward
wren
宇
##wal
cut
watches
rees
weird
obligations
abby
[unused812]
subtle
thoroughbred
1748
unite
[unused851]
johann
diaries
bundesliga
cord
##real
globalization
##wind
[unused542]
planet
thumping
heroes
exchanges
tramway
edison
il
##ington
royce
andres
relation
##さ
##iver
faithful
francesco
##伊
stitch
÷
inflated
odds
fathers
##orn
crosby
nehru
demanding
populated
spilling
##dr
closeness
rights
along
films
grassroots
ron
kentucky
wine
##via
[unused975]
widows
strengthened
championships
jones
plunging
[unused239]
sadly
exchanging
arrangement
illegitimate
okay
rogers
scenery
##zano
##ination
leonard
exceeding
rms
salon
peggy
[unused830]
##hen
disbelief
bike
speaking
threaten
turning
395
kettle
[unused575]
cheaper
stimuli
shell
##had
cuffs
##陽
inversion
shocking
##ining
##†
darling
platforms
rolls
bless
scandinavia
pacific
displeasure
##onus
belgium
marek
shining
##endra
heard
informing
courier
persuasion
86
##ional
糹
##8th
寺
kidding
dax
sicily
ł
designations
mukherjee
nineteen
undertaker
telangana
[unused251]
##ט
maggie
overshadowed
nightingale
continuing
explosive
bahia
many
##cott
monument
freezing
theft
trio
°
completed
##ocytes
palestine
barrels
beautifully
mod
flores
##ory
approximate
locating
##光
saves
sonia
##rish
glued
sales
protested
fatigue
##ub
ね
throbbed
abnormalities
philips
causing
bowler
rivers
harper
##bc
##ok
apologize
commentators
founding
operated
squirrel
##aria
##里
borrowed
##│
handsome
blended
quadrant
scripts
rid
sprayed
820
circulating
水
##lick
oriented
functionality
elle
equations
knox
##ppy
calling
clements
##tler
refueling
corporal
perched
##nator
1883
##liner
boiling
330
franco
ტ
##zia
##v
cheerfully
popped
##layer
##val
doom
xp
mystery
##р
objects
participants
us
jimenez
shitty
##rant
suicide
tory
filled
unstable
島
301
worms
rage
真
genealogy
enrichment
collaborating
hilly
kari
##iom
spend
releases
##tis
##borne
leading
socialists
##pro
##ntial
recreated
##tm
evenly
##lates
calcutta
goo
machinery
eligibility
recruits
restarted
cassette
##edes
cello
give
offences
subjects
##yp
outdoor
rattling
infrared
⟩
##ﬂ
homicide
personally
burma
hugs
beirut
loved
[unused990]
##ᵣ
landon
sake
##য
thriving
doctrine
props
breathed
bastards
##nie
##lateral
##o
decrease
institutions
##ndt
obituary
sunni
nuclei
constantin
despite
marko
\
puzzled
beside
marketplace
brennan
coverage
seattle
julian
atoms
wright
ω
[unused948]
[unused108]
nhs
worthless
ல
##gai
flourishing
hadn
katz
waterford
##ora
gaines
##gar
friend
proton
barcelona
appealing
bitch
schooner
delight
##odies
parents
ssr
ₕ
##ben
chances
headquartered
sanctioned
[unused567]
lok
lexie
[unused484]
stuffed
frenchman
##མ
##stan
landing
tobacco
h₂o
ψ
seems
##tarian
journey
rescued
nak
collins
mayo
victor
aggregation
satisfying
mayfair
##ingly
barbara
##有
targeted
[unused644]
##plex
##金
[unused393]
[unused938]
alice
##fus
wwii
168
squinting
##lence
rayon
indexed
##ique
combatants
westphalia
charging
revoked
rte
sweden
paperwork
saxons
befriended
scooted
##rence
tu
bhutan
travis
hosted
modules
##京
accidentally
visitor
harlow
##load
##ve
native
vijay
cambodian
juniper
##bar
division
##hara
durban
henson
introducing
1648
abroad
edward
incomes
[unused922]
nero
[unused115]
rural
seater
aching
indian
##mt
regal
##lity
mines
pasadena
[unused927]
##bians
number
京
ic
प
monitors
limitations
opposed
##helm
##cit
topological
bandage
librarian
crossings
ල
internet
^
##tology
host
driver
foolish
smoky
room
[unused739]
acc
declan
##por
suffer
##hab
##hand
pamphlets
nikola
dorchester
carved
api
argue
magdalene
ear
pearl
peshawar
snarled
1874
duran
stacey
agreement
dull
##„
##uram
##nay
concurrency
mural
selected
sentimental
sources
corporations
treating
human
lamar
putin
[unused262]
patrols
mexico
hesitated
feather
profit
##ef
compiled
milos
casting
privy
helmets
gained
governed
colombo
ŋ
##med
clocks
persuade
admired
watkins
##ᴮ
induction
echo
bal
##bm
##market
##木
emblem
glancing
[unused967]
formulation
##if
gm
##zziness
militias
guantanamo
##oli
germain
~
departed
convictions
elemental
pronouns
lynne
[unused890]
been
solos
manipulating
##cia
169
probably
##rk
executions
##abia
henan
zeke
kan
reviews
##都
warnings
##wine
charismatic
hymn
##dh
eleven
lego
##dog
[unused67]
peak
scraped
bribery
spearheaded
qu
sequence
11
dante
##less
portico
##wai
##zer
laval
##amps
##rom
##irus
##tus
sarcastically
childless
allocation
pounder
##nham
freddie
extinguished
stipulated
display
cordoba
torture
wilhelm
[unused182]
brook
americas
bavaria
mohawk
1975
american
##pin
monroe
##，
##cured
bison
olympia
##crats
consciousness
##urt
belonging
improved
relate
synonymous
##illy
killed
larvae
completely
brandenburg
##む
englishman
infinity
fires
issuing
##logies
changing
phylogenetic
gaul
plant
destruction
boon
##rly
##jack
grafton
beer
##color
donovan
##ados
##mu
beta
finger
##lls
contributor
confuse
smallest
##nta
bit
sequel
##tta
understands
##cted
ₒ
jackie
nazis
ม
福
1715
twenty
upset
admiralty
##thal
85
##horse
cocoa
javelin
tango
[unused565]
##firm
andrew
thumbs
steward
sewing
bacteria
dl
##lastic
differs
ow
legislature
[unused494]
specified
teasing
displaced
[unused196]
apologized
shang
bows
pools
excluded
creating
tibetan
[unused189]
香
[unused897]
vineyard
##hart
recognizes
provence
pathway
suggest
persistence
shadowy
dolly
costly
natalia
pharmaceutical
portrayed
swallowing
resorts
succumbed
kang
##gis
##lidae
##rop
butler
fry
propulsion
fisherman
##skin
interfere
justine
nightfall
durham
##tters
defeats
ecology
unlock
bel
seaman
alliance
[unused77]
weights
stamped
debating
symmetrical
shaping
vaccine
##unced
sq
suffered
veterans
sounded
##gall
ezekiel
judo
[unused883]
applied
convicts
beethoven
janata
headlines
##chus
##、
bernardino
regulates
##lett
nepali
##∂
##方
aj
entrances
possessive
isaac
[unused284]
liquids
metro
##mite
motifs
##見
schooling
williamsburg
forceful
raided
[unused41]
620
marius
whenever
こ
expands
ja
publications
blocks
strangers
pl
##´s
billings
homogeneous
bi
ض
abbreviation
##bf
dimension
##ross
##rion
##izzly
##quel
ellison
plunged
quilt
##ica
##ィ
grabbed
##uet
zachary
##tead
ゆ
##tad
[unused152]
[unused596]
##weather
relied
1960
sound
stimulus
sourced
concurrent
country
meg
metadata
recording
##rim
hyderabad
robyn
forcefully
pinyin
constabulary
jun
ٹ
exit
v8
chaplain
laboratories
##zzle
##ched
astro
donated
##vir
telegraph
reigns
bf
670
ⁿ
reveals
co
listings
corpse
earl
tract
[unused46]
unanimously
##ᵃ
cries
requested
ballot
curtis
originally
dial
realism
troops
flavor
federico
∈
battalions
chunks
##ing
automated
rutherford
nobody
##tees
suburb
downloads
xx
queer
beads
##bler
[unused519]
manga
popular
keys
sharma
borough
prestige
expand
synthesizers
trier
slabs
##ʀ
##uising
carlisle
##介
demographics
haven
counselor
heaven
humiliating
wrinkled
barrel
##華
tiffany
apocalypse
dragged
tod
‒
belongings
framework
intimately
ʐ
invoked
aeronautics
bronze
sand
セ
constituted
plain
##acio
decorated
ph
calder
eagle
trainee
polynomials
nervous
ය
##!
##ो
beheaded
packet
distribute
knowles
dinamo
enamel
##ف
malibu
shortened
nc
interceptions
tanks
onwards
secretaries
sneaking
##li
kevin
clicks
pop
porcelain
rituals
trusted
federer
##ros
[unused539]
bertrand
potentially
retro
łodz
alaska
vikram
santos
##ard
1500
boardwalk
experiments
alejandro
beatles
##leader
hooks
[unused356]
aground
awake
improvisation
##urst
wrestle
relying
##thic
##tial
resentment
##all
##rium
compartment
##field
garden
sick
repository
ma
##chen
politics
lenin
rabbis
##ures
cornell
obstacles
##bedo
anthropology
ratios
scattering
paw
betting
novel
xv
books
##child
annoyance
mueller
replies
whereabouts
##ths
smelling
continental
missouri
##zhi
responsibility
ignatius
##tula
miocene
overnight
##外
ʊ
reflections
demoted
##क
gloria
elevated
condition
spring
##emann
wrists
pictures
engined
jug
宀
pepsi
worse
£10
lobbying
{
1913
[unused562]
##gang
parisian
person
amelia
##δ
sanitary
fin
segregation
##air
challenge
[unused303]
##ici
tiled
sculpture
addict
##ε
dental
junction
redesign
danger
account
missile
##oire
nylon
sasha
waldo
##dicate
##ent
##zed
##nto
13th
148
creamy
invites
[unused427]
lds
stamps
palace
rann
tempted
adamant
archie
verdict
##rick
cliffs
databases
depicted
hypothesis
quality
chapel
brilliant
peeked
crown
##gc
eduardo
melody
baxter
clasp
calendar
fueled
thorn
newsletter
vibrated
wood
lineage
rice
##hn
bluff
1885
##een
vienna
##bre
##jali
[unused290]
anthropologist
canine
sweatshirt
vogue
##ple
scribe
##rf
1790
randolph
cattle
secluded
pixel
conspicuous
recognised
thrill
board
paralympic
##zic
carroll
tugging
disappears
cheltenham
cisco
papacy
##krishna
graphic
silvery
intercourse
other
marvin
marian
rents
trading
seismic
exotic
collapsing
correlation
kazakh
lights
humming
[unused163]
snakes
mischief
1853
confused
os
##mbs
bicycle
robson
euclidean
merchant
##mas
weasel
reece
pickup
churchill
1910s
##amo
buddhism
prescribed
##fication
admiration
float
##ト
served
thrusts
vastly
bridgeport
derbyshire
arched
identifying
solitary
##ser
##athy
##tucket
cherokee
constructive
recounts
employment
undergoes
##tp
##scopic
wharf
burial
kelley
##inator
salesman
silvia
მ
dealt
tens
tossed
stretching
slip
##pani
magnum
##lier
analysis
entered
storey
plains
ɡ
asteroid
1917
agricultural
erosion
fossil
nationality
orr
129
′
reassured
montpellier
pipeline
then
takeoff
relegated
fordham
歌
##rrow
stephens
##isse
mankind
trinity
[unused253]
somewhat
lion
##gill
##c
bachelor
খ
[unused750]
remaining
messaging
geelong
owed
topic
heads
renee
fay
simulations
bk
exposition
horseback
##eon
spanish
hold
motivated
handles
##lok
##scribe
##gizing
apparel
consume
pipes
middleweight
anglican
##ood
filming
melbourne
semiconductor
maximum
qb
nor
##raph
recession
sui
##lter
door
r
##ᵈ
mats
mongolian
##music
tran
##hi
was
##sp
liter
darkly
##horpe
computational
##aud
frescoes
riff
takes
##unes
[unused912]
curse
##list
braden
##imov
##mont
lowry
xii
1570
recalled
founder
generic
shark
variance
venus
##ম
yoo
chihuahua
##chman
anarchist
fronts
##llie
extreme
sichuan
jonas
seminar
rufus
humour
download
glint
richie
debt
720
##tort
contempt
lois
talented
##opers
ara
violins
garnered
polished
immortal
russell
##resses
dramas
##filtration
committing
allegations
afraid
##kur
chooses
dared
wizard
permit
elimination
int
##acy
$
##xed
corrupt
davies
guyana
lot
ended
excavation
persecution
##iere
ursula
gershwin
games
bowen
##dlow
instructions
stunts
##3
canons
cortes
direction
processing
louisa
ourselves
##right
morphological
##tein
unused
kindness
austin
s
providing
shed
##tem
terrain
##dable
liberalism
ghostly
nuremberg
supermarkets
##bold
generator
breathe
situ
##dai
##force
[unused22]
apparatus
nationalist
slow
clearing
##zza
feminist
rasped
durable
##llan
##rooms
nedra
instructors
##jure
##ག
bicycles
taiwan
tap
bonfire
pumpkin
##kt
period
afi
##ν
grandmaster
hiss
kisses
[unused232]
dc
samuel
boilers
hotter
deserted
slightest
der
##ditional
anomaly
ea
gnome
vocal
languages
##wana
situations
ibn
[unused333]
spite
fungal
scorpion
gone
journalist
bedford
fingernails
sunny
##ege
clara
coward
deciding
spaghetti
ak
do
not
dynasties
ransom
tunes
hand
craft
naturalist
stormy
greenland
##ath
enthusiasts
##christ
evan
skies
[unused570]
radioactive
flea
skipping
№
medical
dodge
defamation
geneva
ismail
suit
macedonia
##istan
private
thoroughly
』
reactivated
cristina
glare
tracey
##ions
desk
hoarse
giovanni
ء
##mx
##ight
roi
upstate
betray
cm
dan
passed
1792
warned
pavel
shrieked
eventually
roast
sf
softball
parapet
undertake
grants
ᵥ
cow
kills
austro
hoax
alternate
##terol
[unused842]
linen
comet
determine
portrayal
reflective
dead
morrow
choral
forehead
##iaceae
naples
orthodox
##cellular
##anal
signage
store
galaxies
clubhouse
submit
evolved
پ
eastward
##hosh
valid
holland
rca
adjusted
guerre
bernard
outlying
plot
thereby
fertile
bay
drowned
lowers
resolving
thru
χ
steamer
investigator
chemist
petra
rich
hands
screwed
##tle
clapton
divert
##isi
gregor
mozart
pinned
₆
awaiting
trips
##nir
##tituted
meaning
clive
##ю
poe
streamed
kelvin
680
extraction
speeches
mechanics
interpreting
##paper
emerging
signalling
tilted
anastasia
poll
lids
nah
##cc
dempsey
kn
[unused128]
##ative
honored
encryption
inappropriate
∆
netherlands
considerably
combines
saving
margaret
extent
focused
rc
forensic
flute
granted
##tore
##ffed
defenses
jurist
##ほ
opening
##ias
hangar
extravagant
mcbride
##ᆸ
akron
margins
sleeper
wayne
##vent
fragile
encompasses
grunted
314
bernhard
humanoid
implementation
inputs
##門
林
integration
attire
cancellation
samples
schultz
leaks
[unused236]
highway
bats
yer
essay
1918
ashes
##ک
voyager
##cer
##ulin
##–
cumberland
increasingly
convened
##khan
orphaned
amour
perspectives
shifted
maintained
huron
hanna
are
##clusive
##ern
crank
supervisor
hackett
fremont
lawrence
sedan
##ending
relative
ascended
dobson
completing
nodes
urgent
##bone
##მ
republican
springs
attention
historic
##∨
tna
##gra
hk
wearing
##ش
monasteries
teammate
clue
accountable
emigration
connor
##oma
contemporaries
##nstein
liang
wandering
inherent
訁
hail
##kha
##ョ
##dman
phrases
zinc
forests
##བ
marche
bye
konstantin
rowing
pianist
marlene
proclaimed
freeman
peer
slapping
118
##bery
1720
theological
inserted
commemorated
lodges
##ppe
interfering
cosmopolitan
nyc
announcing
famous
matteo
keane
##ನ
key
sundance
teenage
speculated
spartan
stalls
##ptic
tactic
¹⁄₂
##yar
translations
##pia
##eft
dresden
##lce
changed
fluids
walter
emilio
modification
builds
dancing
raion
##inski
violet
astonishment
exercises
diminished
##tery
##eil
##vet
giant
diplomatic
compassionate
licensed
##tlan
explores
hem
cooled
[unused414]
rick
thrusting
arson
cartoon
throws
beds
##jou
cleansing
robin
israelis
fate
asserting
julia
telecom
[unused231]
1788
iqbal
tufts
taut
mai
80s
lone
knives
scriptures
requires
ᆷ
##enham
rallied
emirates
colleagues
builders
##忄
atm
audrey
1946
demon
##dra
expressway
prison
saddle
##oya
lucifer
woodstock
134
[unused496]
hatred
reflecting
barrett
encounters
distinguishing
samson
hagen
sudan
crime
cortex
##vies
sudden
##oman
encounter
chill
[unused828]
initiate
spheres
herd
cohen
swings
tense
elbows
warship
##chua
##eus
creaked
##bro
enormous
dentistry
isotope
orange
[unused667]
thirty
ulrich
atkinson
##ama
frederic
generate
dependence
##eti
rune
##het
gerry
ষ
sergei
##logists
common
1b
ipod
tab
##dhi
apartheid
coli
##zie
pang
十
##ev
five
##uni
guilty
་
⅓
sarah
[unused243]
ducks
finest
cats
frames
palazzo
##dc
panel
northernmost
pursuant
aggressively
austria
bestseller
55th
bruised
damned
happening
[unused69]
anatolia
mathias
dietrich
induced
prepare
characters
გ
gonzales
athlete
dairy
legal
1991
##،
##erina
cooperative
consist
slots
##anum
##chers
marshall
##ₛ
edges
honesty
opportunities
morrison
minorities
高
lasts
endured
lunatic
nobility
coaching
##onda
wellesley
detecting
[unused430]
coveted
petty
tolerance
[unused640]
vulture
distinct
forgive
garion
differed
concerns
1768
cigarettes
##ッ
corey
aspect
def
##sea
[unused913]
deed
instituted
ℝ
chart
gather
apply
cab
entire
pia
random
desperately
offensive
burton
lacking
burns
##eding
credibility
sanskrit
craftsmen
patches
bowman
dioceses
##ees
##print
subtly
filmmaker
isles
establishment
undergoing
##heads
##write
lebanese
envy
ত
##lai
wept
sweetness
##ioms
cooke
文
##ₓ
rhetoric
陳
corrupted
wickets
##bright
redesigned
compatible
bridge
inconsistent
##ego
kuwait
gaze
cactus
claudius
hz
catcher
screwing
migrants
poppy
ح
##リ
divinity
jana
occasion
temperament
volta
clergy
kaplan
相
dina
tee
[unused843]
##ე
ib
pleasures
fundamentally
spawned
##mler
magnificent
bryant
math
ukrainian
midst
rancho
distant
##emy
poland
munoz
##isk
310
widely
process
visionary
dissolution
##wicz
vegetarian
prelate
♥
pavement
maximilian
biographies
archery
pivotal
ᅦ
##llar
[unused773]
##ı
rejection
##rative
break
##ches
detained
initiation
periodic
apt
gradient
##elia
anticipating
##sure
1824
##aba
capitalism
my
padded
reduces
staggering
bytes
convertible
guaranteed
lillian
alexander
shadowed
roaring
catfish
##oi
peacefully
vantage
walked
##maid
##asa
volunteered
belgrade
climb
libel
##ill
preceded
wong
##tee
placing
170
brig
movements
utility
ellington
severity
clung
bayer
##ₕ
waterway
wavelengths
ninety
assign
##nnis
##antes
based
comfortable
1925
meant
couch
downloaded
synod
ₚ
speechless
valuable
##も
brien
ri
planck
2nd
sinai
blue
##di
##anian
[unused515]
japan
##ph
souza
conquered
fixture
##uve
ingram
##प
nice
seventies
countess
taken
torment
wounds
yes
welcoming
##jas
yelled
greenwood
intrigued
moravian
cairo
##瀬
crunch
rainbow
##vsky
lower
leiden
fade
camping
284
fantasy
collaborate
gujarat
jailed
##lash
subfamily
ナ
##lene
288
kingdom
entitled
transit
[unused268]
bengali
halle
axle
engage
statue
courage
communists
lola
scarf
traumatic
°f
catalonia
emerson
honoring
omar
vitamin
buildings
pinch
unto
##غ
mao
decommissioned
collecting
##fast
hal
utmost
hillary
audience
hospitality
predictions
relieved
##ᴵ
[unused525]
cake
ropes
stops
##kill
##parts
##ᶜ
harp
weakness
##ہ
disdain
hell
og
balloon
wolf
groningen
wu
##graphs
narrow
distract
ག
[unused623]
jerry
clauses
forums
##yles
leah
pretend
ci
biographer
chinatown
four
australians
christianity
conception
ridges
oldies
cola
##f
##ndi
⟨
##kovic
anwar
[unused957]
glen
reduce
produces
triple
##nga
##rchy
gemma
lyle
tonight
wanda
##ght
implications
blankly
mic
bag
calves
characteristic
politely
aug
claim
epoch
professionally
##bius
1921
cove
modelling
remastered
stages
##moral
washed
weakly
alan
##ষ
skater
hurriedly
reflects
##bling
美
##tin
[unused213]
##20
##idium
##»
disliked
build
humans
britney
craters
##iary
##mill
106
##に
##ists
dell
ernesto
shrines
華
detainees
alcoholic
ribbons
##cheng
reid
##duction
fetch
vowed
##udi
##uil
etienne
1904
cupping
##cha
mika
napier
racer
separation
##千
symbolic
proposal
blanket
nolan
kenya
##ghi
08
confederates
trophy
censorship
hood
##fire
compared
dso
passages
freaks
hermit
[unused824]
juarez
##dan
chester
roman
ulysses
albrecht
deterioration
cheryl
##щ
handy
desmond
staten
rehabilitation
##ade
warsaw
##uy
asleep
##lab
[unused55]
background
cosmetic
unfortunately
##？
##uting
inform
tenderness
comedies
的
rampant
##rad
mug
nur
em
neighbors
[unused162]
nikki
occupants
##lice
##ola
kerman
leinster
##58
##ities
maris
[unused85]
##lies
policies
planets
laurence
eps
greenhouse
cw
cheers
asturias
∧
##able
melinda
chili
useful
recounted
spoil
wind
##udged
proved
riverside
##э
##laise
albania
tipped
larson
saw
water
internationale
housed
##onate
stole
dominique
oceans
stubble
ghosts
760
glass
[unused455]
proposing
##mans
daytona
mission
rocks
verification
narrator
atomic
educator
arrested
immediately
##dana
[unused183]
kinetic
##hd
mascara
ɑ
transatlantic
buses
coincidence
anthropological
fielding
finnish
czechoslovakia
sonata
forced
kota
mary
[unused968]
##jar
##fied
anticipation
gogh
irrigation
storms
ᵐ
博
drying
##graphy
lang
hesitation
honorable
##љ
##itz
##ض
dear
incurred
jem
##34
commencing
municipality
pointed
citizens
tbs
attempted
offshore
spiritual
remove
nationalities
##vron
fanny
finite
glide
laughing
trainer
troubled
uneasy
rates
manuscript
[unused696]
##flight
usb
irresistible
susanna
##zos
##ddling
##ink
##ss
chevalier
rule
testing
abyss
##14
##thing
imports
stevenson
sticking
##ignant
hokkaido
fridays
##¹
choirs
##vert
##llation
shady
dashboard
fears
##lini
continual
##−
gardener
thai
pry
belinda
refers
stains
does
consult
bacterium
fantastic
lockheed
fukuoka
emitted
curtiss
kristin
locomotives
bubbling
tolerate
ventral
rabbit
estimated
##ウ
clandestine
provision
botswana
projected
decided
islamist
##gur
herzegovina
pearls
127
greaves
[unused249]
##oke
##cade
muller
artefacts
balance
flexible
sized
ames
bengal
res
brussels
promoting
tha
aims
wastewater
applying
##oom
lastly
diamond
icc
improving
ज
1757
deadly
wagons
zaragoza
horsepower
[unused282]
1812
shale
##obe
listen
allegro
attributed
funds
entry
##nee
purchasing
byzantine
pi
transformations
parc
refusing
remarkably
iain
##mity
impatiently
biography
daemon
suarez
##lts
sensory
##cel
fenton
gmbh
kaladin
216
belmont
##tite
niger
koch
emerged
mata
alf
##hun
ת
##ked
##ᄅ
represent
bright
deception
##lines
breton
malay
scheduling
##rh
##rine
##♦
##osta
paralympics
##øy
optic
shaun
##vish
serbia
thing
##rie
უ
commemorative
##mine
hana
nonlinear
nightmare
km
laurie
##rmin
preserve
##iec
canada
##dun
arrow
##rift
ipa
diversified
竹
rodrigo
creative
error
given
academies
realize
thumped
yards
quickly
suspected
themes
below
comrades
##ars
stirling
clouded
gifted
hammersmith
horizon
seeking
powerful
conflicting
peters
##ey
newspapers
spectacular
ada
surrounding
eager
ब
##mobile
siberian
tho
¤
ӏ
blacksmith
grazed
collegiate
ي
suppose
descent
##প
ignorance
win
undead
computing
[unused416]
somber
##kers
landscape
cursing
volume
complicated
contractor
panchayat
witchcraft
##ホ
bundle
##¶
comb
farrell
sao
verona
vendor
valuation
pussy
##lom
blackwell
uta
wet
orient
##in
agatha
ein
for
hollywood
##ия
##eur
##guard
breasts
##saurus
dialects
sent
fernando
##ille
squid
box
banda
babies
brother
csa
racks
rough
##將
indy
migrating
47
gunn
hapoel
kb
warrior
##kov
controversial
[unused121]
eastbound
hearings
http
[unused265]
atmosphere
##pressive
hp
quasi
[unused81]
1964
dealer
grotesque
encouragement
regulator
encoding
fall
門
pleasant
smiled
[unused533]
lizard
conceptual
##eit
willed
susie
giuseppe
margarita
commuter
corps
noises
orlando
rescuing
curious
inheritance
temporal
ecosystem
##nine
##xious
helicopters
ramsay
国
series
tae
pe
##ラ
regina
##rained
##ished
pilgrim
singh
1761
smooth
encircled
##see
thence
equivalence
##₁
15th
hobbs
##nified
##ausen
benefactor
med
polly
downwards
starr
theatre
brat
##stadt
refrain
altitude
uhf
strawberry
dividing
vertically
petroleum
rope
authored
destined
1796
haute
##』
him
##vd
mcgrath
pub
raoul
la
sid
kicked
…
steam
companions
pow
г
##izations
⇒
autism
##cious
theater
examiner
distinguish
beloved
social
uncomfortable
fc
samurai
昭
archers
forcing
##gies
ₑ
planted
lend
tomorrow
deepest
turbulent
warrington
flushed
##セ
showered
glacier
sank
[unused591]
##screen
tattooed
[unused764]
##swell
landscaping
##lar
galilee
masks
##lat
creature
fulham
madagascar
argentine
##<
1845
##₅
confederate
gustav
fourteen
progressive
enlist
380
##李
precious
tariffs
antilles
transparent
##pole
carnage
##par
м
．
colombia
sermons
##ª
attested
flanagan
sold
ah
embroidered
perry
maccabi
fundraiser
1945
helm
warden
[unused480]
ash
document
adjective
##qvist
provost
##王
ケ
morals
dutton
##bard
illustrating
alter
ferdinand
phi
stove
relax
towing
##apple
syllables
[unused151]
wrap
↓
uneven
airmen
meat
susquehanna
futures
reserves
##ough
uniquely
conquest
##els
spartans
archdeacon
buzzing
dupont
waterways
hub
exploited
honduras
defected
indie
##gram
##ols
few
kosovo
bates
ipad
##bbe
shortstop
##uis
theirs
dams
##uating
piccolo
rico
##軍
trademark
hugging
##ura
##eros
##ি
enhancement
app
bond
[unused214]
institutes
bethany
certain
het
生
screen
##fies
struck
tongues
##kshi
##ms
tempo
soon
grenades
##swick
内
clinched
hammering
located
dubois
bonuses
agnes
##ass
emilia
rocking
wardrobe
##ui
1764
d
himalayan
113
struggles
railroad
sky
hereford
khmer
leeds
ق
farms
bomb
results
nara
wooden
##shing
##lars
locked
markham
v
##‚
doll
amadeus
unlikely
council
algebra
##sey
##本
athletics
cancers
met
painfully
止
##目
2017
symmetry
elite
remnant
migrated
8
ghanaian
flaws
usd
minneapolis
##阝
##ghan
[unused572]
redundant
strategically
glowed
donnie
audi
mechanized
study
slap
high
negotiation
州
inches
palmer
satisfactory
begin
tor
chen
knelt
guthrie
policeman
##grants
cupped
##⺼
tasting
violate
caused
commissioned
recipe
cords
emmy
hymns
clay
double
champaign
gregory
##kk
parade
skyscraper
ledger
pierce
wonderful
bump
sockets
[unused173]
bowing
legislator
opinions
monterrey
provoke
poorly
##lete
##xa
cast
##mology
launched
pretending
mantle
comics
calabria
##ո
surgical
evacuate
knighted
##won
koppen
leafs
brighter
experiences
henry
hurling
slightly
soared
bitten
curriculum
admission
tends
deaf
income
rises
kidnap
##position
carolyn
rafe
hidalgo
sample
##owed
ョ
hazel
kato
elsa
governing
galway
taliban
pixels
dressed
eugen
mango
zac
##ᅵ
exposing
while
##bing
##ido
strolled
1649
hearst
spying
alps
gentry
surveyor
up
##hdi
mcc
trenches
##rrell
copenhagen
mccoy
##sby
ধ
##kken
stature
##մ
sway
pupil
501
ascension
boris
birthday
combo
32
appellate
intimidating
enriched
griffin
molded
##ysis
1670
##志
demonstrators
##ayan
1560
陽
##発
anxiously
[unused369]
##aby
arrogance
embankment
[unused680]
keeper
allegiance
member
thread
bari
preview
transmitted
grimace
##urus
##！
actor
##n
nose
frazier
rug
##nce
##polis
oskar
ready
vis
marches
skyline
corner
vishnu
##帝
##ulata
##ral
moors
wait
yielding
presents
chemicals
striking
##ɲ
mclean
roma
voivodeship
曲
novelty
ᵘ
pew
##dget
lions
1771
volatile
israeli
multitude
success
##ო
##mere
mandir
classical
petitioned
ecstasy
mcgraw
##ield
squeezing
nationals
##cliffe
lamps
beige
##cic
cocked
efficiently
pontiac
pie
poses
ui
bouncing
lena
lifting
brunswick
75
constantly
displaying
pleasantly
significantly
##ffey
[unused538]
gary
alternating
laundry
oracle
coaches
coasts
##ulent
previously
##kor
laced
soft
##fight
770
##dating
picturesque
##wt
eastman
mariana
reason
##culture
nationwide
[unused415]
##葉
cared
oh
damascus
##vani
umar
##des
bianca
reverend
karate
fish
refurbishment
divisions
yard
ต
canucks
immaculate
upbringing
definition
huang
adaptation
calvin
nov
##gli
ta
terminology
##uki
insider
mainly
seminole
tess
ngo
fractures
merritt
claremont
cores
habits
busted
landowners
lithuanian
ャ
commerce
14th
375
carousel
bleeding
ambiguous
##date
[unused931]
flaw
crossing
rangers
##linger
男
bane
benoit
mammalian
palermo
##region
stock
arbitrary
lyrical
[unused717]
##戦
champion
vicky
obsolete
suites
182
festivities
shan
##rt
commissions
commemorates
fabrics
mercury
anger
ed
griffiths
##gold
swinging
those
##nivorous
acids
reconcile
glory
annexation
quad
malvern
mongol
cary
shielding
checkpoint
[unused175]
einstein
##xi
competitive
goddamn
##rdo
nes
aragon
##hon
author
middletown
drinking
prasad
goaltender
jealousy
##codes
predominant
hysterical
aided
|
primarily
capitol
kimberley
quantum
##erik
scroll
slices
percy
regulatory
sees
serum
##ited
##ख
raising
bunker
##gui
portfolio
幸
##connected
footing
connell
since
jogged
boards
flaming
lesions
undoubtedly
adds
loans
allow
chrysler
feng
compose
え
##star
duke
##ginal
auxiliary
vicki
##yah
halves
variables
shows
地
guess
355
##cliff
primate
barked
##‖
##พ
conventional
##boards
##yes
tuition
1756
dubious
##eers
points
waving
##ocene
[unused233]
leonid
scarcely
wheeling
birthplace
johor
bret
reply
warehouse
swear
##edance
venerable
pits
1954
method
zheng
##夏
represented
agrees
filing
upscale
tidal
linden
##world
##eg
lonely
maddie
natives
corona
medallist
##ifer
[unused267]
malaria
##¥
bred
falcons
##fully
larsen
[unused502]
ashore
await
category
##fulness
##raphic
60s
ぬ
adolescence
##iidae
magnesium
##rud
##chet
গ
inspection
##rgh
##edging
elliot
[unused665]
##春
cairns
corn
marriages
∪
##pee
saratoga
nazi
aspects
pro
internment
secret
鈴
bombardment
circumstances
customer
stunned
##uled
##onale
bush
lebanon
hamburger
waves
should
spare
valencia
1821
auditory
##zman
[unused428]
pradesh
carr
remix
vicar
vivid
570
imp
moody
granville
installation
##fires
##rst
malice
##ronia
diffuse
mondays
awareness
bolt
flattened
manson
guernsey
##iable
electrical
existence
secession
adam
joaquin
pigs
##ய
1829
##mm
dominate
cholera
thick
##ti
brush
related
laborers
complaining
quiz
journalism
barangay
meath
##eve
[unused888]
sunset
lucha
persian
jaguar
hers
##eb
fail
ђ
acronym
ウ
together
stokes
[unused392]
transition
vinyl
[unused297]
seals
ท
podcast
wal
##orough
survivors
mab
prayed
bend
butt
crop
meaningful
smackdown
distrust
adverse
32nd
amateurs
ducked
qaeda
tiger
##bl
all
cartridges
warriors
motown
bulge
combine
w
reorganization
##11
##ories
##wa
functioned
forgetting
##grade
actually
fins
ireland
[unused424]
patronage
mall
plumage
swayed
fairchild
commands
detrimental
##lah
[unused88]
coincidentally
[unused766]
collected
disease
##cule
oliveira
columbus
geologist
propose
##nai
##十
##phate
##tral
##oja
frozen
##eia
nesting
unfolded
[unused247]
ni
##aman
##burgh
intellect
francis
retribution
gaulle
precautions
market
se
type
muscled
##re
plunge
faults
1742
pillar
##ook
1735
[unused664]
raju
squads
##曲
dirt
nina
##wani
ict
assisting
observations
subdivision
automatic
##thermal
sebastian
##ishly
nigerian
##ᆼ
rites
309
##tern
directive
247
schuster
##ane
##wheel
##front
bruise
romanian
portrays
thugs
##mple
counsel
agents
concepcion
guitarists
hole
croix
endings
illustrates
1839
add
##oted
cia
tangible
contemplating
remake
boost
sending
##ust
1901
covenant
hoffman
##阿
mb
dissolve
steve
youngest
##dorf
allotted
guam
##19
jointly
puck
resided
protruding
encyclopedia
##patient
[unused947]
je
soothe
##erin
accessible
crore
##宮
[unused257]
##worm
##hop
##jic
qui
##fera
sultan
##ddin
aftermath
##म
##van
producing
diabetes
outlaw
trent
holder
##vati
diversity
bail
death
ト
phillip
ascribed
##genesis
##sler
##mit
destroyed
stallion
westwood
musique
ambassador
disabilities
フ
represents
王
spreading
contra
##ification
##merie
##tops
saul
ignore
emi
will
enthusiasm
teresa
crossed
##hong
robes
answered
##zu
ethnicity
evaluation
conservatoire
jurassic
aarhus
symphonies
offs
forcibly
lens
##rations
rec
science
row
synagogue
##ා
##ped
dowager
cooking
##vere
hint
##ai
mabel
vines
drawing
tenant
##back
##oon
combination
international
wonders
春
archived
boston
jaime
exodus
##花
per
uniformed
[unused460]
##ـ
folklore
pomeranian
growling
[unused622]
disappointing
low
motor
bandwidth
restaurants
ᅧ
##bil
[unused898]
reformed
##rds
##gration
[unused669]
thirteen
attacks
##jected
##osing
[unused695]
hydrogen
resigned
chiang
layla
trondheim
satisfy
relegation
seaside
ngc
accusing
ships
##shi
grading
hearted
proposition
advertising
##rod
ப
garner
enabling
vic
voting
galicia
[unused223]
##orth
complimented
geologic
statesman
constantine
evidence
overseeing
→
##bbon
[unused776]
ariel
awhile
merit
oder
duncan
platform
procedural
trimmed
##ன
maharaja
longevity
braves
ticket
##chai
##gned
##iology
arrangements
genealogical
soldiers
defeated
bernstein
ж
##ས
flashlight
##endez
iaaf
##ois
howell
##i
##yin
biceps
best
##otho
##pa
##mis
humane
ripe
##mar
##車
flutes
strides
lowe
scales
scrutiny
tables
ev
fisheries
menon
gems
rhymes
gracie
##mined
quantitative
nude
351
##powering
amalgamated
cultures
chin
[unused736]
insulin
cambridgeshire
turquoise
##film
convection
decrees
depression
exchequer
¹
madness
earnest
nate
shutting
1609
nl
ny
paterson
##nian
famously
authoritarian
：
##rasia
adorned
davenport
berry
prohibit
vested
[unused916]
infections
threats
##ines
short
##」
conversion
##erate
forest
sim
contribute
exchange
[unused25]
confronts
interpretation
shelter
aztec
maritime
bmw
expensive
probation
supermarket
tarzan
drummer
##gg
##tted
##raj
##〉
reacting
scranton
plaintiffs
stepping
[unused300]
##ame
##gence
eddie
peel
region
rifles
taxation
##mies
traveler
1645
occupations
bahadur
##ands
##vable
##uga
italy
eruptions
tn
champs
intensely
##edge
stabbed
[unused989]
fiancee
fig
included
navigation
##ida
guessed
slade
34
oro
stepmother
manifested
classification
sock
bends
considering
castes
owning
sculptor
innovative
rockefeller
passing
splash
eastern
chaos
##eman
##bant
linking
ch
somewhere
routledge
anticipated
clause
aiding
toys
samoa
unconscious
worst
youthful
follows
－
700
youth
##gers
dept
studies
fran
vent
errors
choking
reluctance
regency
blackened
brigham
comment
##de
##kovich
##eber
regard
better
boarding
attend
constitute
ahmed
279
furnished
##ז
oppressive
##olar
patterns
satan
karim
##beam
retreating
62
scar
kilograms
gotten
gear
##sing
trait
##⅔
captivity
rovers
huts
louis
nails
##crat
chung
##use
ruling
cyclists
lavender
gardiner
telling
chopper
revolt
ab
##chin
stroke
cigarette
superhuman
##sle
single
lobby
##oper
##oft
shook
nostrils
agra
impossible
nottinghamshire
bing
explosives
filmmakers
ricky
started
disgusted
intelligence
devlin
gertrude
##hip
repairing
whip
uttered
##ins
discoveries
dundee
foot
oklahoma
##dridge
electronics
charts
hen
occurrences
lush
##tting
mccall
theoretically
doorbell
epa
mentor
occupy
##ask
battlefield
senses
##building
##ggio
intermediate
beaufort
implant
charlotte
minimum
indonesia
barnes
gerais
##tative
getting
brendan
left
degree
hernandez
##opsis
[unused545]
gospel
hooded
tragic
##cial
tentative
complaints
##kit
##lit
alfred
andes
matrix
##eration
xander
analyze
##cope
ballast
chet
##chan
##reate
[unused647]
within
academia
##উ
katrina
spire
turner
forrest
illustrations
##tti
monte
sampson
##健
1658
690
third
stephenson
]
##eron
smelled
enlarged
paused
load
क
##ime
1844
yeshiva
graduation
##side
[unused0]
igor
##formed
strengths
dorset
relics
##asia
baritone
severely
ন
##liest
drops
`
##ᵏ
voyage
principle
尚
##47
frontal
reports
cases
cradled
##5
yacht
flooding
pursuing
292
##ppel
periphery
ط
##艹
1767
form
eds
sustainable
rebound
align
victorian
239
incorporated
gale
ale
##qa
sandy
switch
appointing
convoy
luc
notice
occasions
eyre
##mack
[unused555]
clipped
##ode
scenarios
gritted
hopkins
glazed
outfit
prostitute
##isa
light
connolly
predators
ী
manners
extends
internationally
##eet
##ctum
##>
heartland
om
retaliation
##cans
fraud
wrist
reunited
ն
airspace
村
##01
westfield
##text
entropy
##log
linear
propellers
elder
expenditures
reactions
230
mn
suggestion
mutant
tessa
☉
marvel
441
angrily
##bbled
strife
strewn
lanka
heir
##oco
flanking
computed
##ø
fm
##analysis
giro
##loading
posthumous
republicans
businesses
##marks
##yen
chamberlain
dynamite
pulse
treason
##elin
vidhan
inadvertently
##ael
wilkins
fronted
cupboard
##カ
downstairs
grade
townspeople
milo
boyer
yearning
##win
blaine
handel
whereby
largely
lowest
kansas
fuel
##sun
cam
intel
marital
##80
##lysis
31
authorship
contained
curt
sparhawk
vampire
held
perfection
elector
failures
vila
invasive
yell
##9
revision
##trics
gaga
ancestral
delicate
satisfaction
田
##jo
chalmers
undergo
core
billing
skeletons
throwing
peasant
frequency
lending
ー
##ailing
shatter
integers
ʿ
stairway
mating
units
armored
kg
stifled
canadian
##ved
emerges
suffix
##tland
nosed
##belle
2020
mi
##hu
crotch
means
buckled
historia
airfield
staple
##森
gum
technological
rican
ח
sleepy
##ο
[PAD]
willie
windsor
foundry
hierarchy
varsity
todd
misunderstood
brody
progressed
phone
trusts
[unused449]
camped
warming
huge
raiders
##³
/
ultimately
exclusive
giggles
alphabet
##ɔ
alfredo
[unused431]
lux
ethernet
##ry
18
kathryn
bankrupt
stephanie
juventus
oxide
bible
##谷
##etano
comparing
##β
art
dwarf
lodge
sacrament
provider
##vocation
rosie
##oteric
stabilization
##寺
##enne
[unused573]
charley
races
touched
dynamo
vows
comfort
internally
rediscovered
vascular
sour
corpus
libertarian
barron
every
career
romero
parting
baltimore
bela
pam
bitterly
compromised
laguna
anymore
bull
newton
##diment
alvin
executing
england
##ʲ
tinged
[unused79]
##omp
2019
albans
##mento
##borough
79
behavior
broader
extract
miami
sage
diablo
##場
birth
noticeable
bids
assessment
eclectic
deborah
fra
involving
sensitive
touching
scissors
superstructure
son
binding
##emon
twins
fingertips
rugby
##brand
growls
joo
zimbabwe
resistant
guiana
pile
dummy
king
milwaukee
soda
cesar
barefoot
craftsman
shuddered
宮
aeronautical
woo
tb
[unused132]
##স
nevada
##ifolia
college
blake
delegation
চ
replacements
bancroft
##₩
amenities
middleton
##phobia
##hler
##worthy
sleeps
relentless
initial
bellowed
desperate
marvelous
##lovic
company
shadow
unicode
importantly
ebony
identify
baghdad
nationale
netflix
revered
humboldt
hamlets
disputes
annals
##॥
poverty
1902
biomass
decides
flap
ν
reads
snoop
scott
praise
africa
announces
haryana
remarried
incidence
##scoe
interpret
##eased
we
##fare
alain
possessed
elevators
scripture
ː
scrolls
moran
humanist
wire
homecoming
shivers
notified
157
gael
utterly
wan
readings
##gation
correspondence
##app
illumination
##hunter
employs
1656
breeders
maxi
##》
walton
##yx
stealth
pas
lobes
consultants
な
idol
repertory
dawson
admiring
##代
_
freedoms
holocaust
##wil
analytics
continue
institut
##⊂
##ccus
decay
graceful
agreements
chess
darting
carrying
grimly
[unused468]
[unused768]
##22
gallo
##ᅲ
levi
presumably
whistle
haji
##ners
dismantled
reorganized
##ד
ز
invading
directional
њ
clenching
magazine
ɛ
1818
accountability
como
influenza
##sal
brawl
complexes
wiping
ile
alexei
alternately
artistic
abs
essays
boring
cadillac
awarded
onions
com
口
##eed
musicians
stop
weighted
quoted
slits
programmer
##ᄇ
##lo
antiquity
##cape
##tsa
batsman
complain
hourly
leung
struggled
heidi
cheek
superior
expeditions
ave
mp
jay
soaring
##typic
guitars
benji
##ayton
burden
governmental
##urse
frigates
intersect
sends
fort
hawthorn
breeding
1820
ratified
##logue
yucatan
excelled
visuals
aramaic
[unused563]
ether
##awa
##ם
everything
sling
richards
legged
gunslinger
conservative
won
hiatus
[unused501]
stiff
##州
brahms
eats
##len
##lord
coconut
stade
1716
##ħ
1887
armies
crawling
fell
female
hesitant
hometown
media
propagation
annoying
show
brilliance
nudged
travelling
fallout
voted
organisms
liszt
radio
bolsheviks
raphael
##jee
roadside
##rates
priority
1638
elegant
testimony
##test
breakdown
[unused970]
akira
terri
tower
portuguese
liability
whatever
austrian
##zon
drumming
##uven
det
ubiquitous
structurally
discreet
polar
##ruck
diagonal
##sher
##city
ballads
looking
unicef
ร
payne
worshipped
mole
元
##mental
begun
##ᵍ
plaques
surprise
emptied
acceptance
begging
embryo
demi
imagination
1931
integrating
〉
pants
coast
departmental
taunton
danzig
rebounds
gotta
##ob
##vera
popularity
diameter
quinlan
goal
wax
lifeless
antibody
leads
rainforest
commonwealth
twists
activists
suitable
##os
51st
adopt
bankruptcy
demonstration
jokes
pouch
##ingen
##ju
bayern
syntax
lilly
##physical
positioned
1795
darkest
sells
ordered
prosecutors
manually
ellen
holly
swearing
planners
##uber
blanca
cameo
frequent
glenn
##00
lina
lowell
ponds
unconventional
depends
dinners
τ
[unused137]
components
##oun
absorption
negotiating
[unused254]
outward
walt
##pet
pretoria
sanjay
##bled
lectures
between
##ographer
crucial
necessity
[unused926]
sa
veronica
。
##岡
westchester
creativity
scowled
christ
fortifications
owing
vibration
yesterday
telephone
octagonal
flashbacks
crook
occur
tales
114
found
ability
##的
added
snap
threat
paddy
irwin
stung
negro
climbing
kind
wander
##ssi
times
69
##ь
##pot
yates
bilateral
1642
retains
##ந
warlord
aires
comprehend
pigment
##court
morton
##nais
spat
dusseldorf
##zoo
perimeter
##arth
freeze
wexford
##rm
##rba
##42
##lists
##ogy
scrambling
robe
stated
##chule
[unused489]
seeds
##imi
tourists
grover
benign
overheard
origin
campos
##zuki
drenched
eireann
mischievous
smarter
##oum
fiance
29
##masters
cornered
illusion
##anus
outlaws
1950s
eight
prohibits
filly
##aly
##nell
luxurious
springer
dwyer
mcintyre
commissioners
leland
##enia
silas
##49
##ancy
impressive
##vill
mario
batavia
gust
##tya
[unused659]
recruited
##ish
loss
friars
identities
nobles
##ito
ranked
[unused876]
bias
html
affirmative
architect
versailles
billed
harta
##ι
bliss
hobart
[unused50]
feldman
mark
##eptive
tokugawa
##cloth
library
1611
affair
comprising
1854
flooded
tun
veil
##jm
eighties
##彳
als
guzman
u
nations
blog
bree
woody
reclaim
architectural
intended
237
gdp
containment
##ctric
evaluating
##erved
medals
files
##yd
mount
regents
uncles
力
usually
##boarding
saigon
##mute
assists
102
brewer
destinations
mistake
xvi
##oche
rooney
189
rodgers
“
##ater
##llet
trinidad
##inate
consultation
##bella
flavour
##adan
mutations
##reus
clarinet
compulsion
randall
similar
stocked
##uss
masked
nanny
worcester
jozef
targeting
##cytes
##xon
woods
fragmentation
##del
beverage
apostolic
##to
formidable
stairs
##aster
ʔ
bologna
劉
disappointed
assured
coupling
shafts
eki
ξ
conquer
falling
##mming
loyal
untitled
tasked
jude
theresa
enforcement
unhappy
vane
snort
lining
[unused905]
evening
finalist
mbc
saxon
slim
jon
##erie
##ver
charlemagne
vulnerability
##tton
##ruff
visits
logging
mates
##olved
##aurus
nokia
ʁ
##ricting
moore
河
##26
impressed
scanning
zack
confident
##oven
eva
##suke
clothes
armed
##nea
keith
woken
mysteriously
##sse
##ead
ideal
deal
##ference
possessions
compliant
disqualified
invested
mosques
padma
avoiding
##sop
##bet
malayalam
declares
esther
criminals
invest
accomplished
armoured
meteorological
bryn
ventures
##lane
[unused621]
ratio
##dern
lucien
italiana
##‐
chris
forward
pause
[unused973]
patel
assertion
antibiotics
detector
##mel
##isha
##elial
[unused155]
eu
##oic
bacon
ranging
written
##tian
metre
raw
hughes
##git
finer
##dong
cinnamon
jeremy
shooter
erica
##eyer
examining
lips
reacher
flutter
gore
sino
wild
intense
herself
spiders
ನ
axel
conservatory
familiar
hercules
nope
[unused71]
tame
##ulates
##tet
master
##rel
consequence
airborne
pune
typically
terminate
##inatory
subsequently
duplicate
sentences
book
ensemble
[unused311]
bridget
vu
portland
##tric
notions
##rp
unavailable
evaluate
secondary
deng
dorsal
feed
stoke
cocaine
ying
customized
##iae
realm
routine
av
gilles
##ლ
stiffly
bony
##eal
##my
princess
undertaken
geographically
scored
derry
platoon
##box
genuine
algae
headlined
shoot
theologians
##史
jerk
mecklenburg
ecclesiastical
##bell
technique
##emia
mikhail
forgiveness
answering
insignificant
jungle
1890
mckay
conflict
fee
##gley
##rent
automobile
harness
mobilization
emotional
acclaimed
foremost
referred
uprising
treats
crate
isolation
part
##gical
[unused707]
seek
gonna
##ot
horne
##ivating
thanked
union
sr
##dro
[unused308]
somerset
##sis
vital
increases
praying
widen
brianna
bahrain
marion
##dded
wand
capacity
lick
citation
northwest
##llen
空
##rook
twilight
descendant
longer
palette
##der
signaling
yet
hushed
mets
flanks
voodoo
##icon
experts
lightly
##elt
incorporates
munster
organist
obscure
strings
montagu
sung
taxi
unchanged
vaughan
wounding
##lux
lcd
revealing
miners
growth
insanity
ernie
1737
##apes
##esa
economical
russian
shifts
searched
lunged
quentin
registration
intelligent
created
mira
missed
nodding
佐
##ropolis
cloud
run
wartime
malaya
##shore
##eta
[unused112]
tolerant
##lag
[unused753]
##ell
younger
##cona
##cite
transparency
ए
perennial
pensions
76
gerard
##jit
##ywood
records
chunk
striker
336
##fying
sponsor
##iers
##31
##ity
gifts
##গ
troll
calmed
extensively
sufficiently
que
##mos
sheet
recover
intensity
attacked
drafting
viktor
cardboard
##義
173
cv
indigo
complexity
liberation
baggage
##baum
omega
##mora
exasperated
marched
seeing
syriac
tsar
##eger
1810
angela
flipping
gate
rainy
pip
reelected
reminding
centered
constable
##script
##lles
1769
converts
gag
guest
maneuver
solving
##landa
labs
compass
tenor
ivan
##fers
[unused513]
algiers
decor
limousine
march
congestion
provoked
##ova
[unused325]
coil
textile
132
##liness
samsung
secure
##ceptive
execution
monsters
tracts
1929
##eving
zones
##lston
37th
purposes
riot
horrors
resist
cork
enforced
smoothing
suicidal
1740
20th
indices
pebbles
bath
##llins
mysteries
ほ
confrontation
inter
modernist
##ル
lombardy
##wy
marley
patty
eerie
broke
rory
##wood
tug
plea
1947
creed
##dora
[unused904]
##iente
1962
fidelity
lands
[unused30]
sunlight
308
adoptive
substantially
devotion
merry
interested
fetal
slowed
asher
う
droplets
gun
sickness
payment
councillors
dem
##sol
sport
massif
[unused757]
far
jung
hatfield
##iy
lara
shirts
logic
farmland
##ね
abc
##io
prominently
##buch
##rand
glue
nirvana
epsilon
detail
municipalities
raj
1948
commonly
##awan
firefighters
redskins
attitudes
[unused344]
clube
messengers
incomplete
porter
multicultural
sultanate
ton
instrumentation
т
journal
##entes
foothills
shop
proven
shreveport
towed
##ucci
1894
##վ
burke
≡
##rera
trumpets
irony
ukraine
provide
##church
stations
1650
altering
administration
che
##ে
fertility
ᄌ
exeter
menu
mirrored
##sław
##hli
##ons
merchants
orderly
spectacle
sep
tal
ensured
transforms
[unused293]
##fle
debates
woodlands
cum
##hard
caledonia
レ
recommend
harbour
south
dd
miscellaneous
illuminating
##mani
learning
clustered
interruption
ன
##lle
goalscorer
dominates
[unused751]
reservation
certainty
)
professorship
##hin
unofficial
##outh
whisper
excess
era
magician
pony
weathered
raid
stimulate
surpassed
gloucestershire
nr
search
kei
##ᄌ
drone
##38
dozen
lesbian
adi
portals
sheriff
slump
deficiency
notch
doncaster
islands
homeless
ongoing
realized
profitable
[unused287]
tonga
syrup
##北
excerpt
desktop
reserved
伊
basilica
ushered
##ball
bloody
individuals
margot
sniffing
##ل
underway
virginia
coma
talked
more
rigged
terrestrial
aluminum
##copic
feral
magnitude
plucked
##icus
archaeology
lydia
shielded
##scope
brigades
tehran
caressing
##burg
exemption
primary
##dee
excerpts
occupation
delicately
rotting
rolf
requests
palm
mouse
##eda
##lance
1680
crystal
##।
yerevan
ono
karel
46
[unused246]
maynard
softened
loop
biodiversity
##inton
collided
toulon
symptoms
[unused878]
captained
humiliation
1990s
gustave
britten
##অ
varying
[unused801]
inquisition
##code
##tooth
##宇
[unused452]
qualify
##pre
##tter
giorgio
welded
##kiewicz
##lov
aesthetics
definite
paranoia
志
each
appalachian
candles
relational
avalon
consequences
287
passengers
deep
##ind
belfast
goodwin
breeze
>
kids
##umen
advisory
[unused700]
##kara
fantasies
marketing
binoculars
wash
[unused798]
bonus
haired
lambda
dinner
geo
sis
stirred
cartoons
hazardous
disused
downhill
spotting
##ret
##agi
updated
##backs
rivera
chargers
baseball
warlock
##asse
##mini
collision
denis
rousseau
totally
popularly
##drop
interesting
seizures
ending
1941
seventeen
buren
passageway
conceded
strategy
suez
lavish
ganga
creates
trash
slash
1100
columnist
##ulo
##ος
satirical
[unused200]
nintendo
730
##heimer
ே
approve
confidential
applause
genres
pedestrian
task
consultative
hit
イ
ceo
torpedo
tanya
##jun
tennis
##mps
league
##raus
[unused36]
rey
##aves
parliament
1738
atrocities
strict
belgian
biggest
jenkins
##bbling
celia
stretched
ups
soul
##mur
footsteps
exaggerated
oversees
jenna
##lights
##athic
##mie
##mum
ut
##holder
empty
toast
laps
marissa
montana
traded
projection
krakow
anzac
implemented
##ji
##escence
lets
cardinal
predictable
certainly
strikers
##bies
insist
##spar
layne
##cation
hess
matt
rhythm
counties
louisville
artwork
[unused486]
thought
tilting
##imum
foreman
redwood
reactors
mention
discontinued
deportation
ba
explorer
##amp
directorate
associations
calvert
choreographed
dorothea
##roid
##子
race
clench
##sant
տ
##½
##dal
mitchell
tallinn
acquisitions
enrollment
##ₖ
planner
##sd
ser
ち
##50
afghanistan
plan
arabia
rihanna
##eme
molly
##gged
##xley
goalkeeper
##ske
azores
bones
[unused709]
fault
cf
tyrol
yusuf
notes
##hri
##olo
caliphate
croatian
grounds
tori
screw
decreed
##aire
##ids
communion
weaknesses
extra
##rg
submitted
evans
plata
twentieth
bogota
failed
forth
ian
wo
##uria
nowadays
maguire
##cate
enchanted
##vic
jeopardy
sustaining
baku
summon
##lind
insertion
weiss
ways
ledge
russians
[unused838]
restricted
alma
pp
patiently
politicians
mina
retire
end
shift
cocktail
日
##ati
##leaf
grabs
descriptive
lays
suits
robbie
allie
hyde
##ffs
##rio
desired
suspiciously
blinding
##torm
brand
solids
2004
[unused179]
consistency
everyone
observatory
protesting
anchored
##rist
600
venues
##oration
digger
unpaid
boyle
##vary
organizes
suspicion
rowland
guidelines
dying
abandon
prolonged
##ion
hitchcock
removed
bleak
##yde
[unused767]
huffington
##enter
toppled
responding
cylinders
##य
tangled
crashing
##b
##cm
[unused521]
cater
167
rachel
artist
diversion
##oka
1739
livingston
##para
##jad
crashed
none
##tov
[unused705]
nrhp
appropriations
senator
ark
##lessness
##rry
184
##ssler
[unused104]
democrats
1667
##ord
djs
penal
productivity
promptly
tending
helped
agreeing
sumo
skinned
timbers
heavenly
morales
rendering
մ
pest
estadio
beans
george
উ
1982
##ding
harry
illegal
pacing
[unused134]
##/
maid
latin
delegate
##90
411
hamilton
disqualification
guarantee
affected
likewise
##glio
##vances
control
nord
prosperity
due
communication
twigs
wicket
shakespeare
interfaces
andrea
verbal
##bic
employed
inwardly
[unused342]
raiding
frightened
hog
posed
babu
rendezvous
sri
##nism
essence
##vation
reformer
##tadt
mcconnell
##rator
cleavage
##′
philosophical
progress
ella
looked
happens
deafening
primitive
tulane
[unused850]
385
1940
colombian
##eye
dean
remarked
torres
hoping
stranded
roads
##oir
ascot
uploaded
yong
baylor
donnelly
##ark
keystone
households
possession
modulation
terminates
whoa
│
franchises
shades
crumpled
##lusion
[unused215]
##ops
##dp
##rella
wedding
calf
explorers
##iba
orbital
貝
visibly
[unused113]
[unused951]
##ested
terminating
hunt
astonished
immensely
ought
[unused654]
martian
##pres
panorama
strokes
##sm
facilities
sonic
[unused65]
commentary
question
file
shipment
proud
wta
reset
arises
tubular
##mond
inducing
▪
essen
appetite
brew
andrews
waller
##す
1816
52nd
##mba
at
cornish
moons
[unused599]
[unused355]
offenders
serials
route
straw
[unused365]
grab
gothic
accurate
vocalist
masters
clade
##ovich
imagine
##ம
sculpted
##hos
concern
referenced
hunts
##চ
jesse
##roud
abortion
estate
##werk
##น
addressing
fortress
inducted
therapeutic
took
barrow
modernization
shrinking
administrative
numerous
[unused857]
natural
scratch
##enting
dancers
darby
swallowed
witty
[unused280]
cavaliers
dotted
activism
weather
advocated
aging
rays
327
abdominal
shaman
structure
alicia
fishermen
##erative
maj
villagers
standing
divorced
##vale
##trum
##uw
dickinson
persuaded
##hine
crowns
dumont
pointedly
##berto
asahi
nunez
ب
vague
webber
leftist
[unused719]
closely
frequented
##ando
##vo
borrowing
##itors
damages
thickness
##☉
clockwise
[unused83]
ま
##bham
##lot
##tify
importance
lgbt
sparta
warmly
profound
servants
1700
##英
birmingham
penalty
ds
whilst
belt
##ս
than
integrated
cleanup
bra
ou
researched
crawley
##brick
nashville
spread
victories
wolfgang
summarized
ve
biological
##bie
snorted
##ध
417
simulate
dudley
bank
##uing
##ᅭ
flint
norwich
##ivated
bad
##ipes
leo
sudbury
startup
civilized
devastation
aristocracy
ballroom
nbc
commemoration
reborn
curses
adolf
landau
pali
successes
helene
##dilly
hussein
mm
mouth
yarn
##ples
##uri
salsa
nfl
##jos
mostly
magistrate
lesson
stable
[unused358]
moat
colleague
##54
ventured
var
illuminated
1860s
doubts
1949
phenomena
vaults
##ising
##itical
せ
##ez
serious
neighbour
[unused165]
breaststroke
gallery
mourning
put
guerra
sorority
##テ
shut
extended
whiskey
khan
1704
⁷
uae
wasp
afrikaans
brooks
vie
##fl
##名
naming
spray
##ʎ
chain
##kley
transaction
homeland
reconnaissance
##ages
dynasty
fable
cutting
瀬
sobs
shack
##oles
##rred
pinched
hitler
chasing
bergen
ne
214
julio
vinnie
spinning
##ocation
goodness
amendments
##樹
archives
finds
colchester
lethal
1707
##as
##leton
arms
nightmares
ceylon
fades
1643
refuse
##ع
kannada
runaway
yuan
acquire
heaviest
prayers
thousands
##hg
collaborative
mahal
##ole
huh
tiles
assassin
universities
archangel
yd
cement
##tze
1697
[unused724]
falkland
goals
gradually
bowls
wiring
##biotic
tones
honest
windmill
##urer
##oz
improvement
published
classed
##の
ibm
drainage
[unused606]
indication
refusal
schemes
bonaparte
himalayas
subscription
governorate
airplay
livingstone
connacht
enclave
authorised
jockey
attached
snowy
staffed
sporting
##iel
1776
difficulties
slovenian
vial
##ifice
registering
##combe
sharpe
pere
dukes
1300
hepatitis
[unused139]
escaping
undo
##erus
##ians
call
##quil
maxwell
tentatively
##nz
ascent
slot
marie
dee
##bow
participant
storylines
therefore
monastery
loads
##ła
gloom
questions
##ilised
vertical
rabbi
##ии
contests
hop
leather
亻
[unused506]
confirms
backside
exhausted
plantation
##ns
singer
##ude
[unused849]
modifying
topographic
##ouin
ₛ
anxiety
crying
complex
medley
##ged
##ted
surreal
##-
1622
[unused1]
##南
[unused5]
##unas
[unused143]
harden
franchise
##acious
mentions
launching
##lk
chocolate
lacey
foreword
prosecution
##vat
muffled
landfill
highlanders
bothered
lounge
moss
preschool
fair
chancel
practiced
classes
sob
##elle
infant
aid
concerned
steak
enfield
phelps
potential
aye
##zuka
##宀
campbell
jessie
##tius
moth
scotland
##it
museums
##olin
##yson
adopting
findings
james
cole
colleen
江
swirl
when
##eca
pots
wards
europe
quan
learnt
dive
abuse
183
replicate
##ject
##tf
##手
shone
limitation
[unused385]
darius
memory
п
##ves
arbitration
plague
unpredictable
##tman
cummings
##arns
##cor
clips
col
albion
kurt
##ท
macmillan
1641
elastic
poorer
shin
plaster
##hala
sometimes
##cut
client
##yuan
##rao
พ
##*
##ᅩ
god
sinn
unclear
jason
peter
##skie
ira
entrepreneurship
lindsey
older
installations
[unused381]
ᄐ
##zaki
hair
##tick
shaking
grasping
ankles
timothy
mcqueen
##abad
sentai
lesley
weber
ambitious
frowns
stella
##ick
possessing
toss
monthly
boyfriend
copeland
protective
neurons
lust
lead
道
samantha
span
hates
costello
##rring
subcommittee
##sion
##tao
hawker
partisans
lester
murmurs
tendency
##otte
abbot
moaning
ben
conditioned
slips
武
churchyard
##bber
roughly
##raction
mythological
##k
315
passion
vertebrae
##channel
sucked
##cana
##icative
hyundai
##miya
##hol
watched
handheld
today
[unused237]
65
##·
akin
stein
.
bop
clawed
constraints
especially
weaken
##kee
blend
camel
##amine
##listic
fernandez
wil
ו
wilkes
maintenance
##oton
rebuilding
##cis
derelict
[unused135]
##dus
midday
patton
stats
fingers
midfielder
healy
putting
##nall
##sit
brothers
spielberg
airways
##は
##を
reading
cypriot
champions
wanted
uno
འ
bushes
rash
wee
interviewing
4th
sonar
hyun
##yse
botanist
motorsports
speedway
##gami
##ieu
##utz
arsenal
lil
naughty
destroys
##ste
rewards
##claim
francaise
undone
##aldo
galactic
##urne
45th
poems
armament
##bate
scented
naive
favourite
1770
swimming
useless
agency
kazan
cn
marshes
थ
##ciful
repairs
paternal
bautista
john
ting
deleted
##word
vernacular
authoritative
gaelic
specialised
cease
##olis
atv
cameras
rand
throat
posse
##ط
consistent
apex
##க
290
forgot
diver
commodity
disadvantage
marseille
hereditary
interference
[unused238]
fein
already
sneak
[unused835]
tired
##etz
##group
##藤
encouraging
flesh
crawl
##inating
mail
print
waitress
⺩
retracted
成
freed
aidan
paula
peasants
##kas
manipulation
perpendicular
##rro
configurations
boulevard
[unused472]
zoological
##zy
palais
spoke
tatum
##scent
##omorphic
barges
curving
walker
fourth
situation
emotions
པ
klaus
lengthy
teams
1751
##থ
handcuffs
##orio
babylon
##istles
##ɯ
[unused747]
perth
preparation
unit
recorder
en
accelerated
violent
admitting
sirens
it
rap
devon
[unused641]
bottoms
xu
##ander
slovakia
thousand
examinations
teller
blazing
charities
comfortably
forbid
protestant
arching
henley
delicious
indianapolis
implicated
trick
[unused150]
incident
haiti
reckon
##bian
blanco
playhouse
jacobite
karen
##lander
adele
regional
horse
##nbc
##$
##bolic
discount
autobiographical
righteous
traced
##ide
sbs
generally
showcases
wade
lemon
schmidt
[unused129]
##ctor
eldest
cloth
recipes
fraudulent
less
scholarships
catholicism
rashid
colon
unusually
measurement
mechanical
waiting
##dition
copying
ministers
team
×
week
##mable
steel
hemingway
exhibit
oven
##ement
condo
1974
recommendations
##46
mccormick
[unused475]
orgasm
cavern
underside
blogs
southwest
manning
ے
##ke
##zers
##odon
deviation
newark
someone
roofed
duval
##堂
done
landslide
tube
attracting
carbon
assignment
folder
interdisciplinary
scientology
percentage
gunpowder
lined
with
concepts
trades
bai
supernatural
cancelled
hospitalized
sum
ک
unsigned
addition
catering
ball
balanced
##any
##drum
[unused950]
convincing
paying
surge
missionaries
ב
neolithic
overs
stalin
phillies
giacomo
triangular
treatment
modern
ᵖ
##dock
step
##ℝ
canning
rana
##wives
ק
need
beale
terrorist
[unused737]
##13
##keeper
natasha
plants
adams
lose
mummy
early
needle
ferguson
details
breaks
##idae
coa
honourable
##wife
1745
breadth
penitentiary
staples
knowledge
legs
##meo
premiered
roof
##iously
consider
freshly
keeping
ambiguity
javanese
vengeance
liga
magnus
shelley
slapped
dedication
nba
beats
mortality
organs
##ut
##weiler
##gist
##ɒ
chickens
humidity
1830
drama
##l
yours
dna
sp
##hp
maitland
rustic
widowed
秀
##ieri
fuss
##ee
bared
panzer
##bo
wilkinson
cabaret
##man
jocelyn
kinship
cited
playable
searches
sideways
unarmed
technical
writes
commonplace
unnoticed
##mc
academie
maze
seafood
##ges
ʰ
select
absent
selects
protected
ت
initiating
dialect
##tang
bind
fielded
##ᆫ
relating
cayman
jameson
severed
[unused73]
117
##tz
480
con
mills
allowance
##ᴰ
##ettes
##oulos
damian
periodically
ore
eco
organisation
##^
200
blushing
##utable
seville
[unused810]
dance
tabitha
##rbin
illicit
wes
306
hinges
piedmont
mining
##ony
##biology
##oris
gage
diamonds
secular
fools
hydra
proposals
biting
sydney
##scan
##rzburg
boogie
##tc
budge
choir
these
assam
floor
##ika
roar
[unused560]
ん
##dened
constitutional
poet
87
vernon
fluttered
julie
##cup
[unused466]
royals
mad
respect
reinforce
dennis
areas
napoleon
wrenched
##och
ら
63
knocked
clad
##ans
lettering
49
##ability
extending
gardens
camouflage
##rance
context
complementary
gateway
relief
₎
##enes
bwf
##nd
cartwright
trumpeter
heightened
angered
##gat
democratic
deposition
habsburg
neat
legion
specially
emotion
##bad
eleanor
1797
##cke
[unused738]
inscriptions
karachi
marjorie
nightly
skulls
tracy
equity
fai
connecting
cartridge
ky
slate
thin
reins
cards
ordinary
barons
divide
ᶜ
topography
branded
grasses
1849
theaters
[unused61]
##zel
present
sharpened
reacted
leningrad
celebrations
souls
##trust
posting
whitish
numbered
[unused221]
villages
endelle
[unused683]
⁵
##tsky
banging
troupe
cox
appropriate
[unused353]
tablets
buried
onstage
harley
pursue
muster
##esian
thirsty
piston
mick
lyons
##hra
1873
ask
clearance
by
locks
mortgage
piercing
guerrillas
pipe
balkans
forecast
tangent
explosions
##ヘ
computers
nuts
leg
uphold
##ptive
hammer
maltese
nairobi
オ
##ifies
crawled
freaking
coherent
mutiny
frustrating
manor
gliding
##lea
243
defended
economics
[unused476]
greenfield
barren
caucasus
midfield
1719
[unused169]
spike
rooted
sabrina
1743
christian
access
[unused958]
asking
coalition
insane
##eno
indicator
whichever
##gl
overview
murderous
##born
costs
poly
bt
rot
erika
walking
tactical
walks
##cats
rapper
embarrassing
lukas
[unused656]
sutra
ব
favoured
vermont
watching
97
##dek
stepped
thorns
fortunately
木
alpha
toll
ambrose
sweeney
depths
substitutes
事
galley
shea
sobbing
m1
terminated
halloween
driven
kaufman
oman
∗
##sz
takahashi
cabbage
ecosystems
larger
affiliation
##erman
musica
sweat
collarbone
tip
##ка
interface
##cp
##cian
turmoil
rue
##kon
##rrie
keyboard
1731
rained
[unused250]
highlighting
permitting
motorized
kw
phyllis
氵
powers
jillian
shia
connections
1980s
sierra
bubbles
romanesque
dolphin
daggers
rotterdam
dickson
##ー
choked
installment
soo
deteriorating
##cca
nevertheless
[unused154]
drafts
picking
##tated
avoid
daring
expressive
provocative
calderon
##ivist
vocational
##eles
administering
թ
##₇
1908
660
82
womb
maureen
colin
##3d
locally
regiment
thief
traditional
fraser
labeled
texted
##urable
content
##df
residency
##ima
##fest
youths
novella
phoenix
lieu
satin
##ssar
வ
handled
##原
[unused806]
conscription
final
fitness
plc
penny
vuelta
counter
##hc
levine
injured
highest
pins
receiver
solely
ʷ
imperialism
businessman
cardiovascular
##athi
additive
seamen
difference
##eri
myers
reclaimed
dispersed
artworks
concealed
##ssel
distraction
drafted
scope
pantheon
##rts
sworn
1000
psalm
hendrix
winthrop
##6
hissing
suv
null
帝
##eric
125
##∆
alone
##river
blaze
##dit
##ess
spd
##aja
##lean
norwegian
solid
seized
acidic
discussions
liberals
shooters
[unused490]
potter
gloves
slams
tripoli
##enay
##rmed
=
1995
puzzle
chains
bluegrass
hardly
##iste
ipswich
freaked
12
1940s
goodnight
chennai
定
priory
southern
##edo
cornwall
discovery
repeated
texas
##lberg
[unused787]
intricate
kingsley
animals
civil
fascinating
instructed
steele
vida
trance
ƒ
ф
awards
marshal
ahead
denomination
paid
412
affection
squeezed
strongest
warn
layout
simultaneously
front
darkened
##ig
hendricks
scrub
memphis
barker
entering
॥
imitation
bob
##main
prefix
missy
slides
##奈
bloc
moths
stick
##wny
archaic
##ajan
inch
foreign
leger
[unused470]
melissa
permitted
staircase
##ently
notoriety
territorial
toxic
terra
marin
tuba
sexy
wealthiest
##nzo
naomi
paint
neighborhood
sql
trusting
vaccines
chatham
require
upgrading
hostel
stampede
յ
1786
unified
sabha
##anor
butte
[unused797]
##ates
restraining
engineers
trafford
specialization
support
association
parades
shouted
##gon
echoing
turing
comrade
alistair
compact
drawn
personal
wasps
##ania
nan
obstruction
boys
cluster
onion
zev
link
passionate
brandon
侍
##hiro
1662
brushing
[unused626]
##nse
ar
stares
transport
squire
##ingdon
##sboro
coke
armagh
katy
wandered
scrap
cones
[unused966]
pictorial
playboy
##rder
fir
korean
seahawks
bureau
doorstep
clyde
meridian
acheron
ted
##tory
bavarian
janeiro
marathi
ride
mike
[unused841]
succeed
collections
[unused450]
##9th
hornet
augsburg
[unused520]
remembered
##ʸ
limb
48
accustomed
breeds
confinement
kyle
##अ
icelandic
25
replacement
pitched
secondly
##rith
courtesy
##ress
acoustic
##att
makeup
louie
overland
viral
entrance
##iga
roasted
[unused170]
parked
ala
fiat
properly
rbi
rink
geese
copa
willy
cooling
screenwriter
##num
cong
区
葉
awakening
ing
1832
service
advice
sincere
ieee
affecting
characterization
kylie
seizing
highways
airship
woodland
##zily
jeanne
liberia
fit
staged
##hil
stormed
##ล
supplies
1623
hulk
circling
##roy
defines
##stein
determined
286
91
aliens
quest
は
processed
unmanned
fatty
encouraged
##28
terence
kathmandu
songwriting
樹
psychologists
[unused932]
resulting
scars
overlook
##laya
promoters
##rica
filmmaking
[unused740]
##48
retiring
october
reforming
richly
feeds
serve
exams
ke
„
damon
filtered
players
kellogg
iran
entertained
plaza
catalina
##dicated
model
unbelievable
favor
ள
344
angel
maiden
reckless
##liga
303
provides
wife
davey
giving
miniatures
sublime
seas
breathless
racetrack
##dou
bangs
##ᵉ
morocco
##red
anything
fluttering
royalist
experimented
145
pact
##esis
faculties
breaths
ᆨ
comply
cares
bass
560
mg
phosphate
##─
1895
resolved
[unused523]
≤
[unused854]
gem
##ency
garland
disperse
##inkles
101
##%
##pper
mangrove
essex
loki
attribute
annex
cnn
nilsson
##itas
paws
young
mammals
governors
seneca
acid
penguins
bamboo
།
[unused412]
forged
warfare
hmm
supper
resembling
aroma
##gne
[unused924]
sanity
romance
##brook
minimal
rocky
##iger
freight
returns
unprecedented
1961
committees
bounty
standard
emile
##itte
departments
itself
barry
roland
vatican
wendell
chronological
km²
##zz
##ら
rabbits
##puted
bundled
inspiration
denote
update
aggravated
verandah
singles
pains
##kti
baseline
[unused203]
kun
proceeding
spoon
##th
pioneer
surrey
坂
necessary
##som
nomination
bumped
bounds
[unused877]
dun
maximus
##point
crates
##zcz
brown
sacked
sandals
steppe
framed
朝
legacy
mackay
##扌
adolph
syndrome
##cina
multiplayer
ping
try
##ই
debuting
##pher
review
circulation
engraver
[unused579]
philology
opined
dagger
departure
gr
institutional
raged
tavi
##ear
infamous
remarks
grinned
agree
desperation
##ented
senegal
inmates
ms
cerro
compassion
ajax
edith
staggered
ₓ
く
147
spitfire
frail
interventions
##itative
##ometric
tibet
heavyweight
insurance
impaired
##taka
1200
drummond
latest
fits
np
kitchener
mathematicians
depended
[unused413]
bertram
pamphlet
##dd
hines
verge
accept
hepburn
bala
hermes
noun
drip
enroll
augusto
##qua
##ᵀ
grammatical
publishers
ɲ
terrible
gap
kobe
revived
plush
minerals
ions
##zes
bribes
100
eliminated
hans
##mour
monarchs
photograph
tyne
fireplace
rather
administrations
##als
joshi
miniature
potato
predator
bombing
listing
##27
tara
cleric
bro
dillon
gown
##ales
crust
maia
racehorse
nietzsche
buchanan
months
possibilities
hayden
##matic
##rley
routines
gonzalez
sediments
explicitly
editors
rooms
##&
disagreed
defendants
##bha
kilometers
may
[unused35]
224
[unused320]
charm
##lich
##lled
bags
##alo
##ugh
mexican
326
##meyer
germany
26th
hai
kant
swirled
proclamation
tearing
##gement
staff
1755
1675
crusade
horizons
phase
mounted
'
##4
sagged
tram
provinces
scare
##bai
brno
##hesive
bangalore
parts
portable
書
treaties
stroll
##grant
transcript
metallic
berger
obtaining
alerted
classifications
flood
lit
cups
loomed
[unused864]
joins
liverpool
##zee
zeta
##cies
colonel
ₗ
carp
##ᅥ
xiii
applications
evidently
##hide
prank
owen
##sche
н
##sies
madrid
notable
clicking
wanna
seminal
norway
composite
erwin
extension
uppsala
0
##anta
blazers
spokane
##oslav
minds
wanting
regulating
♭
##ₘ
against
##cao
##bain
ditch
##hony
stupid
besieged
yankees
nothing
brace
##minated
ɐ
##bruck
degradation
##hya
##you
meanings
thereof
##ciency
subdivisions
serie
santa
##ff
[unused672]
amnesty
##planes
dinah
pontifical
scents
writing
##29
谷
caledonian
hug
lucinda
buyer
critical
##ণ
177
apples
musicals
termed
asa
persist
sit
earthly
tainted
mountain
##kr
amara
shore
brigade
appropriately
fourier
archaeological
twitched
##ated
##astic
rhodes
curled
cowboy
##las
tough
shillings
viceroy
denny
responds
##ں
pork
stockholm
ィ
savannah
positively
baronetcy
[unused823]
sister
mendoza
wylie
flight
##シ
recognizing
mcleod
tricks
，
myth
##ture
1992
##forth
gottingen
unidentified
##oint
harriet
strung
##gues
##valent
programmed
concentrating
leaning
glucose
##nova
acquaintance
abbess
conduct
downfall
##aceae
kay
1965
cod
irrational
assassinated
loops
321
##ulous
##lette
teenager
rebuild
contrasts
##ggs
invisible
neatly
trident
assist
users
agile
corresponded
##rino
115
interrupting
manufacturers
¬
##lden
fluffy
adoption
⊆
knicks
[unused783]
amy
digits
##ɡ
fog
hormone
m
repealed
vaulted
bao
schedule
##е
cindy
reappeared
middle
screamed
##dev
##ello
baking
tours
butch
genre
##mers
convergence
ল
pressed
suggestions
部
transform
##rable
mauritius
abdul
trim
1888
##iling
attractions
governments
mac
onslaught
fergus
smoked
stuttgart
mathematics
##dia
wehrmacht
flirt
liza
connie
##vs
themed
waved
blanche
wb
raging
coca
mouths
applicant
seamus
##utus
1794
log
[unused349]
mack
nikita
notation
seated
rehearsal
motorway
aisle
##erton
1868
[unused2]
##ept
amin
##yeh
ferrer
flatly
papua
sargent
eponymous
removes
##थ
ce
intro
ankara
##bio
lyndon
infancy
##ग
nebula
bestowed
manual
belarusian
##7
##int
airs
fairness
bullock
glow
pronounced
propaganda
example
wasn
racist
brunei
de
laszlo
##ල
##ric
[unused125]
keel
authority
furthermore
[unused218]
anchors
conservation
meeting
nsw
tossing
##rian
lowered
compelling
##oin
[unused180]
都
groin
remark
shoes
ニ
##ciation
[unused366]
oath
according
sham
##ophone
eureka
mothers
##acle
sipping
व
newscast
probability
mfa
rib
rotational
##cheon
marc
walters
malls
##ucible
ricardo
322
##aneous
duties
南
##ml
##ics
declaration
æ
##lson
1624
geography
revealed
binds
freiburg
preparing
regulators
ա
##ella
1703
hoover
fruit
patrice
rpm
vi
##oki
##nded
arrange
nora
[unused14]
fraction
tempest
bouquet
personalities
##deh
tastes
biased
soloists
##kar
bce
philipp
burn
breakers
powder
whitaker
middlesbrough
##osomal
obtain
rewarded
##glers
scouting
mustache
farmers
inexpensive
blockbuster
rutgers
torches
##aj
##〈
communism
converge
johan
lump
nutrients
chico
fia
potatoes
bratislava
##men
fully
harassment
proceeded
herald
brodie
questioned
affirmed
pulp
template
jaipur
abbey
##west
favorite
##him
kane
kenneth
lip
hacker
[unused493]
devil
##te
##get
bisexual
slovene
dos
kazakhstan
clifton
##tam
hack
nasser
walkers
##lta
wharton
cade
familiarity
bellevue
throughout
inquiries
langdon
millie
##iciencies
##ɴ
confronting
likeness
[unused458]
proxy
religious
saturn
##kei
exclusion
##zen
##andra
geology
ra
##mic
institution
guo
##uter
nfc
vast
hbo
[unused953]
##sio
joao
expected
ceiling
convex
freighter
camille
《
##gling
##nty
into
marcus
##asian
feb
imperative
faye
loan
apocalyptic
mont
peru
francs
siegfried
##cini
inuit
obedience
contributions
hurricane
is
contemporary
##wat
nomenclature
rubble
boroughs
neighborhoods
##₈
gorman
ァ
##12
##ße
##working
ћ
hanoi
barbie
##suit
evade
irina
##ster
##bilis
aged
innate
parish
jasmine
##icio
172
murdered
ruins
insights
surroundings
treasure
announcement
##orum
robotic
genome
[...]
